unsigned char g_model[] = {
  0x1c, 0x00, 0x00, 0x00, 0x54, 0x46, 0x4c, 0x33, 0x00, 0x00, 0x12, 0x00,
  0x1c, 0x00, 0x04, 0x00, 0x08, 0x00, 0x0c, 0x00, 0x10, 0x00, 0x14, 0x00,
  0x00, 0x00, 0x18, 0x00, 0x12, 0x00, 0x00, 0x00, 0x03, 0x00, 0x00, 0x00,
  0x48, 0x22, 0x00, 0x00, 0x64, 0x1f, 0x00, 0x00, 0x4c, 0x1f, 0x00, 0x00,
  0x3c, 0x00, 0x00, 0x00, 0x04, 0x00, 0x00, 0x00, 0x01, 0x00, 0x00, 0x00,
  0x0c, 0x00, 0x00, 0x00, 0x08, 0x00, 0x0c, 0x00, 0x04, 0x00, 0x08, 0x00,
  0x08, 0x00, 0x00, 0x00, 0x08, 0x00, 0x00, 0x00, 0x06, 0x00, 0x00, 0x00,
  0x13, 0x00, 0x00, 0x00, 0x6d, 0x69, 0x6e, 0x5f, 0x72, 0x75, 0x6e, 0x74,
  0x69, 0x6d, 0x65, 0x5f, 0x76, 0x65, 0x72, 0x73, 0x69, 0x6f, 0x6e, 0x00,
  0x07, 0x00, 0x00, 0x00, 0x04, 0x1f, 0x00, 0x00, 0xe4, 0x1e, 0x00, 0x00,
  0x34, 0x00, 0x00, 0x00, 0x2c, 0x00, 0x00, 0x00, 0x24, 0x00, 0x00, 0x00,
  0x1c, 0x00, 0x00, 0x00, 0x04, 0x00, 0x00, 0x00, 0xae, 0xe0, 0xff, 0xff,
  0x04, 0x00, 0x00, 0x00, 0x05, 0x00, 0x00, 0x00, 0x31, 0x2e, 0x35, 0x2e,
  0x30, 0x00, 0x00, 0x00, 0x80, 0xe0, 0xff, 0xff, 0x84, 0xe0, 0xff, 0xff,
  0x88, 0xe0, 0xff, 0xff, 0xce, 0xe0, 0xff, 0xff, 0x04, 0x00, 0x00, 0x00,
  0xa0, 0x1e, 0x00, 0x00, 0x1e, 0x14, 0x05, 0x04, 0x01, 0x00, 0xff, 0x00,
  0x06, 0x0a, 0x10, 0x0b, 0x10, 0x10, 0x18, 0x12, 0x12, 0x11, 0x13, 0x11,
  0x15, 0x15, 0x16, 0x13, 0x17, 0x16, 0x19, 0x18, 0x1d, 0x1b, 0x1c, 0x1f,
  0x24, 0x21, 0x24, 0x22, 0x23, 0x1e, 0x22, 0x25, 0x0c, 0x07, 0xf6, 0xf9,
  0xf2, 0xf6, 0xf0, 0xf3, 0xf3, 0xfe, 0xfe, 0x01, 0xff, 0x05, 0x0a, 0x07,
  0x04, 0x07, 0x05, 0x07, 0x07, 0x09, 0x08, 0x09, 0x0c, 0x0c, 0x0f, 0x11,
  0x11, 0x14, 0x13, 0x15, 0x17, 0x16, 0x1c, 0x18, 0x18, 0x14, 0x15, 0x18,
  0xfc, 0xf8, 0xec, 0xef, 0xea, 0xef, 0xe7, 0xed, 0xee, 0xf7, 0xf6, 0xf7,
  0xf9, 0xfd, 0xff, 0xfd, 0xfa, 0xfd, 0xfd, 0xff, 0xfd, 0xff, 0x02, 0x04,
  0x04, 0x06, 0x08, 0x08, 0x07, 0x0b, 0x0b, 0x0e, 0x0f, 0x0f, 0x13, 0x0f,
  0x10, 0x0d, 0x0e, 0x13, 0xf3, 0xf1, 0xe3, 0xe8, 0xe1, 0xe8, 0xe1, 0xe8,
  0xe6, 0xf3, 0xef, 0xf1, 0xf1, 0xf6, 0xf6, 0xf8, 0xf7, 0xf7, 0xf6, 0xf8,
  0xf6, 0xfc, 0xfc, 0xfd, 0xfb, 0x00, 0x00, 0x03, 0x04, 0x03, 0x03, 0x06,
  0x07, 0x06, 0x08, 0x05, 0x06, 0x04, 0x05, 0x0b, 0xee, 0xed, 0xde, 0xe1,
  0xd9, 0xde, 0xdb, 0xdf, 0xe2, 0xeb, 0xe7, 0xe7, 0xeb, 0xeb, 0xf0, 0xf2,
  0xed, 0xf1, 0xf1, 0xf4, 0xf5, 0xf8, 0xf8, 0xf4, 0xf5, 0xfa, 0xfa, 0xfc,
  0xfd, 0xfb, 0xff, 0xfe, 0x02, 0x00, 0x03, 0x00, 0x01, 0xfc, 0x02, 0x04,
  0xf2, 0xf7, 0xe5, 0xdf, 0xe1, 0xed, 0xe4, 0xed, 0xe4, 0xf8, 0xf3, 0xf1,
  0xf3, 0xfa, 0xf7, 0xfa, 0xf6, 0xf6, 0xf4, 0xf8, 0xfd, 0xfe, 0xfb, 0xf9,
  0xfa, 0xfc, 0xff, 0x01, 0x02, 0x01, 0x00, 0x01, 0x04, 0xfe, 0x04, 0x00,
  0x00, 0xfd, 0x05, 0x07, 0xfa, 0xf6, 0xec, 0xe9, 0xe8, 0xe9, 0xec, 0xed,
  0xeb, 0xed, 0xf0, 0xee, 0xf2, 0xf1, 0xf6, 0xf5, 0xfb, 0xf7, 0xf7, 0xf6,
  0xfa, 0xff, 0xfd, 0xfc, 0xff, 0xfc, 0x01, 0xfd, 0x04, 0x00, 0x03, 0xff,
  0x06, 0xff, 0x05, 0x01, 0x03, 0xfc, 0x03, 0x01, 0xfe, 0xf7, 0xf6, 0xeb,
  0xf4, 0xf0, 0xf1, 0xf2, 0xf0, 0xf0, 0xf8, 0xed, 0xf5, 0xf5, 0xfe, 0xf8,
  0xfa, 0xfc, 0xfc, 0xfa, 0xfd, 0xf8, 0x00, 0x01, 0xff, 0xfc, 0x01, 0xfe,
  0x06, 0xff, 0x04, 0xff, 0x06, 0xfe, 0x06, 0x00, 0x05, 0xfb, 0x06, 0x00,
  0x06, 0xf9, 0xfc, 0xe8, 0xef, 0xe8, 0xf2, 0xea, 0xf3, 0xe9, 0xf9, 0xf3,
  0xf9, 0xf8, 0x04, 0xfe, 0x03, 0x00, 0x02, 0xfa, 0xfe, 0xfb, 0x02, 0xfa,
  0x01, 0xfa, 0x04, 0xff, 0x08, 0x02, 0x06, 0x02, 0x05, 0xfa, 0x06, 0x01,
  0x06, 0xfa, 0x05, 0xfd, 0x01, 0x01, 0xf8, 0xda, 0xef, 0xe7, 0xf5, 0xed,
  0xf9, 0xea, 0xfc, 0xeb, 0xf6, 0xf3, 0x01, 0xfc, 0x02, 0xfc, 0x01, 0xf3,
  0xff, 0x00, 0x00, 0xf4, 0x02, 0xf7, 0x00, 0xfd, 0x05, 0x01, 0x02, 0xf7,
  0x00, 0xf7, 0x04, 0xf6, 0x04, 0xf6, 0x02, 0xfd, 0x06, 0xec, 0xfb, 0xe4,
  0xf8, 0xee, 0xf8, 0xe9, 0xfa, 0xe8, 0xfc, 0xef, 0xff, 0xf6, 0x05, 0xff,
  0x06, 0x06, 0x07, 0xf2, 0x01, 0x01, 0x04, 0xfe, 0x04, 0xfc, 0x00, 0x00,
  0x08, 0xf7, 0x04, 0xfa, 0xfe, 0xf8, 0x00, 0xf6, 0xfe, 0xf7, 0x03, 0xfa,
  0x07, 0xed, 0xf9, 0xe8, 0xf8, 0xdb, 0xfd, 0xe6, 0xfd, 0xe4, 0x00, 0xf5,
  0xff, 0xf1, 0x03, 0xf5, 0x05, 0x01, 0x09, 0xfc, 0x03, 0xf8, 0x06, 0xfb,
  0x03, 0xf3, 0x03, 0xf4, 0x05, 0xfb, 0xfd, 0xef, 0xfb, 0xed, 0x00, 0xf0,
  0x01, 0xed, 0xff, 0xf3, 0x0c, 0xee, 0xfe, 0xdc, 0x00, 0xe3, 0x01, 0xe8,
  0x01, 0xee, 0x08, 0xf0, 0x04, 0xf5, 0x09, 0xfa, 0x0a, 0xff, 0x09, 0x00,
  0x04, 0xf7, 0x04, 0xf9, 0x05, 0xf6, 0x01, 0xf4, 0x04, 0xf6, 0x00, 0xfa,
  0xff, 0xeb, 0xff, 0xee, 0xfe, 0xed, 0xfc, 0xec, 0x0d, 0xe8, 0x02, 0xde,
  0x06, 0xe0, 0x03, 0xe5, 0x02, 0xea, 0x09, 0xe7, 0xfe, 0xf4, 0x07, 0xf8,
  0x06, 0xfe, 0x0c, 0xfe, 0x07, 0xf1, 0x09, 0xf6, 0x04, 0xf4, 0x04, 0xf3,
  0x04, 0xfa, 0x00, 0xf3, 0xfc, 0xf3, 0x01, 0xf2, 0xfc, 0xeb, 0xfe, 0xf2,
  0x0e, 0xe6, 0x03, 0xd8, 0x01, 0xcf, 0x06, 0xe0, 0x00, 0xe8, 0x06, 0xee,
  0x03, 0xea, 0x05, 0xf6, 0x08, 0x02, 0x10, 0x00, 0x0c, 0xff, 0x09, 0xfa,
  0x06, 0xf8, 0x02, 0xf8, 0x08, 0xf9, 0x02, 0xf7, 0xfd, 0xee, 0xff, 0xf1,
  0xff, 0xed, 0xff, 0xeb, 0x0d, 0xe8, 0x09, 0xd9, 0x09, 0xdb, 0x08, 0xde,
  0x04, 0xe8, 0x08, 0xf3, 0xff, 0xf1, 0x07, 0xf4, 0x08, 0xf9, 0x0a, 0xef,
  0x04, 0xf4, 0x04, 0xf9, 0x02, 0xf1, 0x07, 0xfc, 0x05, 0xf6, 0x01, 0xee,
  0xfc, 0xf0, 0x05, 0xef, 0xfe, 0xed, 0x03, 0xf5, 0x14, 0xe5, 0x0a, 0xde,
  0x10, 0xd1, 0x0b, 0xdd, 0x07, 0xe9, 0x09, 0xef, 0x01, 0xf0, 0x08, 0xf9,
  0x0c, 0xfd, 0x0f, 0x00, 0x0a, 0xfc, 0x07, 0xf8, 0x07, 0xf4, 0x09, 0x00,
  0x09, 0xf9, 0x02, 0xf5, 0xfe, 0xec, 0xfd, 0xee, 0xfd, 0xee, 0x05, 0xef,
  0x18, 0xe4, 0x19, 0xd8, 0x0d, 0xcc, 0x0b, 0xde, 0x11, 0xe5, 0x07, 0xe8,
  0x00, 0xed, 0x11, 0xf4, 0x10, 0xf5, 0x0b, 0xfc, 0x06, 0xfd, 0x0d, 0xfb,
  0x09, 0xf5, 0x08, 0xf8, 0x0b, 0xfc, 0x05, 0xfe, 0x03, 0xf0, 0x04, 0xf8,
  0x00, 0xf0, 0x05, 0xf8, 0x10, 0xd2, 0x0d, 0xd0, 0x11, 0xd4, 0x14, 0xe6,
  0x13, 0xe7, 0x06, 0xe5, 0x01, 0xef, 0x0c, 0xe7, 0x0f, 0xf5, 0x11, 0xfa,
  0x03, 0xfa, 0x0b, 0xfc, 0x0a, 0xff, 0x0b, 0xf5, 0x08, 0xea, 0x04, 0xf6,
  0x00, 0xee, 0x04, 0xef, 0x01, 0xed, 0x01, 0xf1, 0x15, 0xd9, 0x0a, 0xd0,
  0x13, 0xc8, 0x10, 0xe2, 0x15, 0xe4, 0x12, 0xe6, 0x06, 0xe6, 0x0a, 0xef,
  0x10, 0xf9, 0x17, 0xfd, 0x0b, 0xf7, 0x0d, 0xf9, 0x09, 0xf4, 0x08, 0xf3,
  0x09, 0xfc, 0x01, 0xf0, 0xfe, 0xee, 0x02, 0xf1, 0xfe, 0xee, 0x04, 0xf1,
  0x14, 0xd2, 0x13, 0xcf, 0x14, 0xcd, 0x1b, 0xd6, 0x1a, 0xed, 0x0c, 0xd5,
  0x0d, 0xf3, 0x10, 0xf7, 0x15, 0xfb, 0x19, 0xff, 0x0a, 0xf8, 0x08, 0xf2,
  0x09, 0xf0, 0x06, 0xf9, 0x0b, 0xf9, 0x02, 0xfc, 0x04, 0xf1, 0x02, 0xf3,
  0x04, 0xf5, 0x07, 0xf1, 0x0f, 0xd0, 0x17, 0xcb, 0x10, 0xc9, 0x15, 0xd9,
  0x1a, 0xde, 0x12, 0xe3, 0x0a, 0xe7, 0x11, 0xf5, 0x12, 0xf7, 0x1b, 0xf0,
  0x06, 0xfc, 0x05, 0xee, 0x0d, 0xf1, 0x09, 0xf7, 0x0c, 0xef, 0xfe, 0xed,
  0xfd, 0xec, 0xff, 0xf1, 0xfc, 0xe6, 0xff, 0xf0, 0x1a, 0xd4, 0x16, 0xc5,
  0x13, 0xc7, 0x1b, 0xd8, 0x1d, 0xe0, 0x19, 0xdc, 0x03, 0xe4, 0x10, 0xf1,
  0x10, 0xf3, 0x1c, 0xfe, 0x10, 0xf9, 0x0f, 0xfa, 0x09, 0xf5, 0x09, 0xf3,
  0x0f, 0xf9, 0x06, 0xf2, 0x00, 0xf8, 0x03, 0xf0, 0x01, 0xef, 0x01, 0xf7,
  0x1a, 0xcf, 0x0f, 0xc4, 0x13, 0xc3, 0x22, 0xda, 0x20, 0xdc, 0x0d, 0xd2,
  0x07, 0xe9, 0x13, 0xee, 0x17, 0xf7, 0x18, 0xf7, 0x0e, 0xed, 0x0e, 0xf9,
  0x0d, 0xed, 0x09, 0xfc, 0x11, 0xf9, 0x08, 0xf5, 0x02, 0xf9, 0x07, 0xf7,
  0x01, 0xfb, 0x04, 0xf3, 0x1d, 0xc6, 0x14, 0xc7, 0x0f, 0xc7, 0x21, 0xd0,
  0x20, 0xe3, 0x14, 0xd8, 0x0a, 0xf0, 0x15, 0xef, 0x13, 0xf2, 0x1d, 0xf9,
  0x07, 0xf7, 0x0d, 0xf1, 0x09, 0xef, 0x08, 0xf2, 0x09, 0xf5, 0x02, 0xf7,
  0x00, 0xf8, 0xfc, 0xfa, 0xff, 0xf5, 0xfc, 0xf6, 0x23, 0xca, 0x1b, 0xbc,
  0x1a, 0xc2, 0x20, 0xd1, 0x2a, 0xd1, 0x11, 0xdd, 0x12, 0xe7, 0x10, 0xed,
  0x17, 0xec, 0x1b, 0xf2, 0x08, 0xee, 0x09, 0xf5, 0x10, 0xe9, 0x07, 0xea,
  0x0b, 0xeb, 0xfe, 0xf5, 0xfd, 0xf4, 0xfe, 0xee, 0xfd, 0xef, 0x00, 0xf4,
  0x1e, 0xce, 0x1a, 0xcc, 0x22, 0xc0, 0x21, 0xd2, 0x28, 0xd0, 0x10, 0xdc,
  0x0f, 0xe4, 0x1a, 0xec, 0x12, 0xf1, 0x14, 0xeb, 0x0c, 0xec, 0x09, 0xea,
  0x05, 0xeb, 0x04, 0xee, 0x08, 0xe8, 0xfd, 0xf5, 0xfa, 0xef, 0xff, 0xf3,
  0xfe, 0xf7, 0xfc, 0xf6, 0x22, 0xcc, 0x22, 0xc4, 0x1c, 0xc7, 0x22, 0xcc,
  0x21, 0xd2, 0x15, 0xdd, 0x0c, 0xe1, 0x17, 0xee, 0x11, 0xe9, 0x1f, 0xee,
  0x07, 0xe4, 0x08, 0xf0, 0x08, 0xe9, 0x0b, 0xf1, 0x05, 0xed, 0xf9, 0xf4,
  0xfe, 0xf3, 0xfe, 0xf3, 0xfc, 0xf7, 0xfd, 0xff, 0x20, 0xd2, 0x18, 0xc3,
  0x1e, 0xc4, 0x26, 0xc9, 0x1b, 0xc6, 0x14, 0xdc, 0x0b, 0xe8, 0x15, 0xe5,
  0x16, 0xee, 0x22, 0xf1, 0x05, 0xf3, 0x13, 0xee, 0x0a, 0xf0, 0x0f, 0xfa,
  0x0d, 0xf4, 0xfc, 0xf7, 0x01, 0xfa, 0x03, 0xfd, 0x01, 0xf9, 0x01, 0x02,
  0x19, 0xca, 0x19, 0xbc, 0x1e, 0xc5, 0x28, 0xcc, 0x2e, 0xd5, 0x15, 0xd5,
  0x13, 0xe3, 0x14, 0xea, 0x15, 0xe8, 0x1d, 0xf3, 0x07, 0xee, 0x09, 0xf3,
  0x10, 0xeb, 0x0c, 0xf6, 0x09, 0xf1, 0xfb, 0xf2, 0x03, 0xfc, 0x00, 0xf6,
  0xff, 0xf7, 0xfe, 0xf2, 0x1b, 0xc6, 0x1b, 0xbe, 0x20, 0xbf, 0x27, 0xc8,
  0x2b, 0xd9, 0x15, 0xd9, 0x10, 0xd9, 0x16, 0xe5, 0x17, 0xe9, 0x1d, 0xef,
  0x0f, 0xef, 0x06, 0xeb, 0x0f, 0xec, 0x09, 0xee, 0x06, 0xf2, 0x01, 0xfc,
  0x03, 0xfc, 0x01, 0xfe, 0x02, 0xf7, 0x03, 0xff, 0x20, 0xcf, 0x24, 0xc0,
  0x20, 0xc3, 0x30, 0xd3, 0x26, 0xcf, 0x1c, 0xd9, 0x19, 0xdd, 0x17, 0xe3,
  0x15, 0xeb, 0x1e, 0xe0, 0x13, 0xf6, 0x0d, 0xe5, 0x08, 0xe9, 0x09, 0xeb,
  0x07, 0xee, 0xfe, 0xf6, 0x00, 0xf9, 0x03, 0xef, 0xff, 0xf8, 0x04, 0xfc,
  0x1c, 0xc9, 0x1f, 0xc0, 0x26, 0xbe, 0x2e, 0xd4, 0x38, 0xd6, 0x1d, 0xd3,
  0x11, 0xd9, 0x10, 0xe2, 0x15, 0xe7, 0x19, 0xeb, 0x0e, 0xeb, 0x0b, 0xea,
  0x13, 0xef, 0x0d, 0xef, 0x10, 0xee, 0xfd, 0xf4, 0x03, 0xfb, 0x07, 0xfb,
  0x06, 0xff, 0xff, 0xf0, 0x1d, 0xc4, 0x1f, 0xc0, 0x25, 0xc0, 0x28, 0xc6,
  0x2e, 0xd6, 0x21, 0xce, 0x0f, 0xde, 0x19, 0xdc, 0x13, 0xe7, 0x1e, 0xea,
  0x13, 0xe7, 0x07, 0xdf, 0x0a, 0xed, 0xff, 0xeb, 0x0e, 0xf9, 0x02, 0xf8,
  0x03, 0xfb, 0x05, 0xfb, 0xfd, 0xf2, 0xfb, 0xf7, 0x1f, 0xcd, 0x1e, 0xbf,
  0x24, 0xc1, 0x37, 0xd1, 0x23, 0xd1, 0x20, 0xc8, 0x0c, 0xdc, 0x1e, 0xe3,
  0x1d, 0xee, 0x16, 0xe8, 0x10, 0xee, 0x07, 0xe8, 0x0a, 0xe7, 0x0a, 0xf0,
  0x17, 0xf8, 0x07, 0xf1, 0xfe, 0xfe, 0x08, 0xfd, 0x01, 0xfb, 0xfd, 0xfc,
  0x23, 0xcf, 0x26, 0xc3, 0x17, 0xc4, 0x32, 0xcc, 0x29, 0xce, 0x21, 0xd8,
  0x0c, 0xdf, 0x1a, 0xe3, 0x1b, 0xea, 0x21, 0xea, 0x10, 0xe4, 0x0c, 0xe7,
  0x0e, 0xe5, 0x05, 0xed, 0x13, 0xec, 0x01, 0xf0, 0xfd, 0xf0, 0x01, 0xf3,
  0x02, 0xf5, 0x02, 0xf5, 0x1c, 0xc7, 0x1b, 0xbb, 0x24, 0xc3, 0x2f, 0xcd,
  0x2e, 0xd4, 0x22, 0xd3, 0x1b, 0xd8, 0x17, 0xdb, 0x1d, 0xe4, 0x26, 0xf1,
  0x10, 0xe0, 0x05, 0xdf, 0x0c, 0xde, 0x04, 0xe7, 0x0e, 0xea, 0x09, 0xf2,
  0x00, 0xf0, 0x00, 0xf0, 0x03, 0xf5, 0x01, 0xf2, 0x22, 0xd4, 0x26, 0xc6,
  0x23, 0xc2, 0x31, 0xc5, 0x23, 0xd1, 0x1d, 0xd0, 0x0a, 0xd5, 0x15, 0xe1,
  0x19, 0xe6, 0x29, 0xee, 0x12, 0xeb, 0x0c, 0xe3, 0x01, 0xe9, 0x03, 0xe5,
  0x0f, 0xf2, 0x0b, 0xf8, 0x08, 0xfc, 0x0c, 0xf9, 0x07, 0xfa, 0x0a, 0x07,
  0x1c, 0xc1, 0x1e, 0xba, 0x1e, 0xc0, 0x32, 0xcd, 0x2f, 0xd8, 0x27, 0xd6,
  0x15, 0xdd, 0x22, 0xe4, 0x23, 0xea, 0x1f, 0xea, 0x17, 0xec, 0x09, 0xe4,
  0x08, 0xe2, 0x02, 0xe5, 0x0e, 0xe9, 0x04, 0xfb, 0x0b, 0xf8, 0x07, 0xfc,
  0x0a, 0xf9, 0x05, 0xf5, 0x2b, 0xcb, 0x25, 0xbd, 0x23, 0xc5, 0x3d, 0xd4,
  0x32, 0xd2, 0x1c, 0xd4, 0x13, 0xd7, 0x0d, 0xdd, 0x1f, 0xea, 0x1e, 0xe9,
  0x18, 0xdf, 0x0b, 0xdb, 0x03, 0xdb, 0x04, 0xe1, 0x05, 0xe8, 0x01, 0xef,
  0x02, 0xf5, 0x07, 0xf7, 0x05, 0xf6, 0xfb, 0xef, 0x1d, 0xcd, 0x23, 0xbb,
  0x1c, 0xc2, 0x36, 0xca, 0x25, 0xd6, 0x21, 0xd1, 0x0f, 0xd7, 0x15, 0xde,
  0x1a, 0xe6, 0x22, 0xe5, 0x07, 0xe1, 0x0f, 0xd7, 0x07, 0xd7, 0x06, 0xe1,
  0x09, 0xe2, 0xf9, 0xeb, 0x04, 0xf7, 0x08, 0xfa, 0x06, 0xf7, 0x00, 0xf2,
  0x1b, 0xce, 0x21, 0xbe, 0x1c, 0xc2, 0x34, 0xcd, 0x2d, 0xd0, 0x1e, 0xcb,
  0x09, 0xcf, 0x1a, 0xe0, 0x1c, 0xdf, 0x1b, 0xeb, 0x11, 0xdb, 0x06, 0xd5,
  0x07, 0xda, 0xfa, 0xde, 0x0c, 0xe3, 0x01, 0xec, 0x00, 0xf4, 0x09, 0xf3,
  0x02, 0xef, 0x02, 0xf0, 0x28, 0xd7, 0x2d, 0xc4, 0x1e, 0xc9, 0x34, 0xd3,
  0x2a, 0xcf, 0x1d, 0xcc, 0x0b, 0xd4, 0x1f, 0xe6, 0x1e, 0xe6, 0x1e, 0xe3,
  0x0d, 0xe4, 0x07, 0xd7, 0x07, 0xdb, 0x04, 0xe2, 0x06, 0xe7, 0x09, 0xed,
  0x06, 0xf5, 0x08, 0xf4, 0x01, 0xef, 0xfb, 0xee, 0x25, 0xd9, 0x1e, 0xc3,
  0x19, 0xc0, 0x38, 0xcd, 0x2b, 0xc7, 0x19, 0xcc, 0x0a, 0xd6, 0x1a, 0xdb,
  0x1b, 0xe3, 0x1e, 0xe4, 0x11, 0xdc, 0x03, 0xd8, 0x02, 0xd5, 0x05, 0xdd,
  0x09, 0xde, 0xfe, 0xe6, 0x04, 0xef, 0x02, 0xee, 0xfe, 0xef, 0x00, 0xec,
  0x26, 0xd7, 0x2c, 0xca, 0x2e, 0xd1, 0x33, 0xc9, 0x2e, 0xd4, 0x13, 0xcd,
  0x0a, 0xd4, 0x14, 0xd8, 0x1e, 0xe5, 0x1c, 0xe6, 0x0f, 0xe2, 0x06, 0xdc,
  0x13, 0xdf, 0x12, 0xe1, 0x0b, 0xe0, 0xfd, 0xe5, 0x00, 0xed, 0x02, 0xee,
  0x06, 0xf3, 0x02, 0xf6, 0x2f, 0xe8, 0x3c, 0xd7, 0x2f, 0xd2, 0x34, 0xca,
  0x2b, 0xcb, 0x0f, 0xc8, 0x0d, 0xda, 0x22, 0xe2, 0x22, 0xd9, 0x1d, 0xe2,
  0x0f, 0xdd, 0x09, 0xdf, 0x08, 0xd7, 0x08, 0xdc, 0xfd, 0xdf, 0x02, 0xeb,
  0x04, 0xf3, 0x04, 0xec, 0x01, 0xf1, 0xfa, 0xea, 0x44, 0xf3, 0x3d, 0xdd,
  0x40, 0xe5, 0x43, 0xd9, 0x37, 0xd7, 0x23, 0xcf, 0x10, 0xd5, 0x27, 0xe7,
  0x19, 0xe7, 0x1b, 0xe1, 0x14, 0xe2, 0x09, 0xde, 0x05, 0xda, 0x0b, 0xde,
  0x03, 0xdc, 0xfb, 0xed, 0x07, 0xed, 0x04, 0xef, 0xfd, 0xed, 0xff, 0xeb,
  0x50, 0x02, 0x4c, 0xeb, 0x4d, 0xf1, 0x52, 0xea, 0x42, 0xe4, 0x2b, 0xdd,
  0x26, 0xe5, 0x26, 0xf3, 0x24, 0xee, 0x27, 0xe5, 0x1a, 0xee, 0x10, 0xe1,
  0x0e, 0xe0, 0x15, 0xe5, 0x04, 0xe1, 0xf7, 0xec, 0xfd, 0xef, 0x0a, 0xf3,
  0x01, 0xee, 0x05, 0xf1, 0x6e, 0x18, 0x67, 0x09, 0x67, 0x0e, 0x71, 0xfe,
  0x55, 0xf1, 0x41, 0xef, 0x34, 0xf2, 0x3c, 0x01, 0x3f, 0xfb, 0x30, 0xf6,
  0x2d, 0xf2, 0x26, 0xf1, 0x1a, 0xf8, 0x26, 0xf3, 0x13, 0xf0, 0x0f, 0xf4,
  0x04, 0xee, 0x0b, 0xf8, 0x0a, 0xfe, 0x09, 0xf3, 0xf4, 0xf9, 0xfc, 0x01,
  0xfe, 0xfc, 0xf7, 0xfb, 0xf9, 0xfd, 0xf8, 0xfe, 0xfd, 0xfa, 0xf9, 0xfa,
  0xfb, 0xff, 0x06, 0x00, 0xfa, 0xfa, 0xf6, 0xf7, 0xf5, 0xf8, 0xf7, 0xf9,
  0xf6, 0xf7, 0xf9, 0xf7, 0xf9, 0xfc, 0xfa, 0xfb, 0xfa, 0xfc, 0xfa, 0xf2,
  0xfa, 0xfc, 0xfe, 0xfe, 0xfd, 0xfb, 0xfd, 0xff, 0xfd, 0xfc, 0x00, 0xfe,
  0xfe, 0xff, 0xff, 0xfe, 0x01, 0x00, 0xff, 0x01, 0xfe, 0xfb, 0xfa, 0xf6,
  0xf7, 0xf9, 0xf9, 0xf9, 0xfc, 0xfd, 0xfb, 0xf8, 0xfb, 0xfc, 0xfe, 0xf9,
  0xfe, 0xfe, 0xfb, 0xf6, 0xff, 0x03, 0x04, 0xfd, 0xff, 0xfe, 0x01, 0xfe,
  0x04, 0xfd, 0x03, 0x04, 0x06, 0x03, 0x05, 0xff, 0x06, 0x02, 0x06, 0xff,
  0x04, 0xfe, 0xfe, 0xfc, 0xfe, 0xfb, 0x02, 0xfe, 0x01, 0xff, 0x00, 0xfe,
  0x02, 0x03, 0x06, 0x00, 0x05, 0x03, 0x01, 0xfa, 0x08, 0x06, 0x08, 0xfd,
  0x05, 0xff, 0x09, 0xfe, 0x08, 0x06, 0x0f, 0x07, 0x0d, 0x03, 0x10, 0x07,
  0x0a, 0xfe, 0x09, 0x06, 0x06, 0xf9, 0x00, 0xf9, 0xff, 0xfe, 0x08, 0x00,
  0x05, 0x00, 0x03, 0x00, 0x09, 0x03, 0x07, 0x05, 0x09, 0x01, 0x06, 0xfc,
  0x13, 0x0f, 0x12, 0xff, 0x0e, 0x00, 0x0e, 0x05, 0x0d, 0x08, 0x0d, 0x08,
  0x10, 0x0b, 0x0f, 0x06, 0x0b, 0x05, 0x0d, 0x05, 0x07, 0xfc, 0x04, 0xfd,
  0x06, 0xff, 0x08, 0x01, 0x07, 0x01, 0x0a, 0x0a, 0x0d, 0x02, 0x0c, 0x08,
  0x10, 0x06, 0x09, 0xfc, 0x0a, 0x01, 0x0e, 0xfc, 0x07, 0x01, 0x0e, 0x06,
  0x10, 0x03, 0x0d, 0x08, 0x0a, 0x02, 0x09, 0xfe, 0x0d, 0x03, 0x0b, 0x06,
  0x08, 0xff, 0x04, 0xfa, 0xfd, 0xf7, 0x09, 0x03, 0x04, 0xfe, 0x08, 0x0b,
  0x09, 0x02, 0x0d, 0x03, 0x10, 0x03, 0x0a, 0xff, 0x08, 0x00, 0x07, 0xfa,
  0x0a, 0x01, 0x0b, 0x02, 0x09, 0x07, 0x0c, 0x05, 0x0a, 0x03, 0x05, 0x06,
  0x0e, 0x00, 0x0a, 0x05, 0x0b, 0xfb, 0x04, 0xfa, 0xf7, 0xf5, 0x04, 0x00,
  0x04, 0xfc, 0x08, 0x05, 0x09, 0x02, 0x0a, 0x06, 0x0f, 0x03, 0x0a, 0xfe,
  0x05, 0xf9, 0xfd, 0x00, 0x07, 0xff, 0x06, 0xfc, 0x05, 0xfc, 0x08, 0x0c,
  0x09, 0x04, 0x08, 0x08, 0x0d, 0x04, 0x07, 0x04, 0x06, 0xfa, 0xff, 0xff,
  0xf9, 0xf2, 0x02, 0xfe, 0x03, 0xfb, 0x02, 0x04, 0x01, 0xfd, 0x06, 0x02,
  0x07, 0xff, 0x07, 0xfc, 0x05, 0xfb, 0x03, 0xf4, 0x04, 0xfe, 0x03, 0xfd,
  0x06, 0x05, 0x02, 0x08, 0x05, 0xfb, 0x02, 0x07, 0x0d, 0x15, 0x0d, 0x08,
  0x0a, 0x08, 0x04, 0x05, 0xfa, 0xfa, 0x02, 0xfb, 0x06, 0xfa, 0x01, 0xfd,
  0x01, 0xf8, 0x01, 0xfc, 0x01, 0xfc, 0x05, 0xf8, 0x0c, 0xfc, 0x05, 0x03,
  0x03, 0xfb, 0xfe, 0xfa, 0x02, 0x08, 0x04, 0x02, 0x01, 0xf7, 0x00, 0x03,
  0x0b, 0x18, 0x0c, 0x0a, 0x0b, 0x00, 0x01, 0x00, 0xf9, 0xfc, 0x02, 0x0b,
  0x05, 0x0a, 0x04, 0x05, 0xfd, 0xfc, 0xfe, 0xfd, 0x00, 0xfd, 0xfd, 0xf9,
  0x0a, 0x02, 0x03, 0x07, 0x05, 0xf5, 0x04, 0xf7, 0xff, 0xff, 0xfc, 0xff,
  0xf9, 0xfd, 0x00, 0x07, 0x0e, 0x1c, 0x12, 0x14, 0x11, 0x08, 0x07, 0x0d,
  0x01, 0x04, 0x05, 0x10, 0x09, 0x0a, 0x02, 0x05, 0x00, 0xfc, 0xfd, 0xf9,
  0xfc, 0xfb, 0xfd, 0xf3, 0x06, 0x07, 0x0e, 0x05, 0x06, 0x04, 0x07, 0xfe,
  0xfa, 0x01, 0xf0, 0x08, 0xf2, 0x00, 0x00, 0x15, 0x0f, 0x1f, 0x0d, 0x20,
  0x11, 0x0b, 0x07, 0x03, 0xfe, 0x02, 0xfd, 0x11, 0x05, 0x08, 0x01, 0x04,
  0x04, 0xfc, 0xf6, 0xf5, 0xfd, 0x04, 0xff, 0xfc, 0x09, 0x0b, 0x08, 0x0d,
  0x06, 0x03, 0xfb, 0xf5, 0xfe, 0x0b, 0xed, 0x03, 0xf6, 0x03, 0xfe, 0x0e,
  0x0f, 0x1a, 0x0e, 0x19, 0x13, 0x07, 0x03, 0x0e, 0xfd, 0x0e, 0xfd, 0x19,
  0x09, 0x07, 0xfa, 0xfa, 0xfe, 0xfb, 0xf1, 0xf8, 0xf8, 0xfc, 0xfd, 0xf4,
  0x01, 0x05, 0x04, 0x0b, 0x0a, 0x00, 0xf2, 0xef, 0xf2, 0xfb, 0xe5, 0x01,
  0xf1, 0x0b, 0xf9, 0x17, 0x10, 0x27, 0x10, 0x22, 0x0a, 0x0f, 0x08, 0x19,
  0xfe, 0x10, 0x01, 0x12, 0x07, 0x09, 0xfb, 0xfb, 0xf6, 0xf8, 0xe9, 0xf4,
  0xf5, 0xf3, 0xf5, 0xf6, 0x0d, 0x16, 0x0b, 0x0a, 0x0b, 0x06, 0xee, 0xfd,
  0xf4, 0x02, 0xee, 0xf9, 0xf5, 0x15, 0x01, 0x26, 0x1a, 0x2f, 0x15, 0x2a,
  0x10, 0x1e, 0x0c, 0x17, 0x01, 0x15, 0x07, 0x14, 0x08, 0x0f, 0xff, 0xfa,
  0xf7, 0xff, 0xe7, 0xf1, 0xf2, 0xf9, 0xf6, 0xf0, 0x06, 0x10, 0x05, 0x08,
  0xff, 0x03, 0xf1, 0xf2, 0xf0, 0xfd, 0xe3, 0xf0, 0xed, 0x10, 0xff, 0x2d,
  0x13, 0x33, 0x15, 0x24, 0x19, 0x1e, 0x05, 0x12, 0xfc, 0x11, 0xfd, 0x1a,
  0x0b, 0x0f, 0xfe, 0x03, 0xfa, 0xfa, 0xe7, 0xec, 0xee, 0xf0, 0xee, 0xea,
  0x12, 0x1a, 0x04, 0x03, 0xff, 0xf6, 0xe1, 0xec, 0xe4, 0xed, 0xde, 0xed,
  0xf0, 0x0d, 0xfc, 0x1e, 0x17, 0x3b, 0x1c, 0x33, 0x1b, 0x22, 0x08, 0x16,
  0xf7, 0x11, 0xfd, 0x16, 0x07, 0x18, 0xfd, 0x01, 0xfa, 0xf5, 0xde, 0xe5,
  0xe3, 0xef, 0xe7, 0xf0, 0x11, 0x27, 0x0d, 0x13, 0x04, 0xf9, 0xe2, 0xf2,
  0xde, 0xea, 0xda, 0xf6, 0xe3, 0x10, 0xf7, 0x2a, 0x0d, 0x3a, 0x15, 0x2d,
  0x17, 0x2a, 0x09, 0x17, 0xf1, 0x11, 0xfc, 0x1d, 0x02, 0x11, 0x03, 0x06,
  0xf4, 0xfc, 0xe5, 0xee, 0xe5, 0xf1, 0xe9, 0xe6, 0x15, 0x39, 0x17, 0x18,
  0xfd, 0xe9, 0xda, 0xf4, 0xe1, 0xf1, 0xd4, 0x0a, 0xed, 0x05, 0xf5, 0x19,
  0x0f, 0x37, 0x17, 0x32, 0x1a, 0x21, 0x00, 0x13, 0xf7, 0x10, 0xf9, 0x1f,
  0x02, 0x1a, 0xfe, 0x02, 0xf2, 0xfb, 0xdd, 0xf8, 0xdf, 0xf9, 0xe4, 0xea,
  0x18, 0x3f, 0x10, 0x16, 0xf2, 0xea, 0xd6, 0xe8, 0xdc, 0xf5, 0xe4, 0x05,
  0xea, 0x10, 0xf4, 0x29, 0x0d, 0x36, 0x18, 0x31, 0x11, 0x2f, 0x0c, 0x16,
  0xf2, 0x0a, 0xf9, 0x14, 0x05, 0x18, 0x03, 0x00, 0xf5, 0xf4, 0xdf, 0xf4,
  0xe3, 0xeb, 0xdf, 0xed, 0x1b, 0x48, 0x18, 0x2b, 0xf5, 0xe9, 0xd8, 0xf9,
  0xdc, 0xfc, 0xd7, 0x00, 0xe5, 0x08, 0xf5, 0x1e, 0x11, 0x30, 0x17, 0x30,
  0x0f, 0x25, 0x03, 0x1f, 0xfe, 0x0f, 0x03, 0x13, 0xfe, 0x0e, 0x01, 0xf2,
  0xf5, 0xf1, 0xd9, 0xe7, 0xe0, 0xeb, 0xe1, 0xeb, 0x2b, 0x4f, 0x18, 0x1f,
  0xf4, 0xf5, 0xe2, 0xf4, 0xdf, 0xfd, 0xd7, 0xfe, 0xea, 0x13, 0xf3, 0x27,
  0x11, 0x33, 0x16, 0x3e, 0x13, 0x27, 0x09, 0x22, 0x02, 0x19, 0x03, 0x1f,
  0x03, 0x1e, 0x01, 0x00, 0xee, 0xf1, 0xda, 0xf4, 0xe9, 0xf0, 0xe5, 0xf3,
  0x23, 0x44, 0x14, 0x13, 0xe7, 0xdf, 0xd6, 0xf0, 0xd6, 0xff, 0xd4, 0xf1,
  0xe3, 0x15, 0xf0, 0x20, 0x10, 0x2b, 0x13, 0x36, 0x0b, 0x2b, 0x04, 0x1f,
  0x03, 0x21, 0x0c, 0x19, 0x04, 0x15, 0x08, 0x03, 0xf2, 0xf8, 0xe4, 0xee,
  0xe4, 0xec, 0xe3, 0xf5, 0x1a, 0x44, 0x19, 0x12, 0xf1, 0xef, 0xd7, 0xf7,
  0xd4, 0xf9, 0xd7, 0xfe, 0xde, 0x0f, 0xf8, 0x25, 0x15, 0x37, 0x19, 0x38,
  0x0a, 0x22, 0xff, 0x1d, 0x02, 0x22, 0x07, 0x0b, 0xfc, 0x0f, 0x09, 0x07,
  0xf3, 0xf4, 0xdd, 0xea, 0xd9, 0xe7, 0xe4, 0xf2, 0x17, 0x43, 0x0a, 0x18,
  0xed, 0xf1, 0xe2, 0xf9, 0xd5, 0xfa, 0xd8, 0xf5, 0xd7, 0x05, 0xed, 0x2d,
  0x13, 0x31, 0x16, 0x3a, 0x09, 0x16, 0xf8, 0x16, 0xfe, 0x13, 0x07, 0x0d,
  0xf9, 0x08, 0x07, 0xfe, 0xf2, 0xfa, 0xea, 0xea, 0xe0, 0xf2, 0xe7, 0xf6,
  0x1b, 0x47, 0x0a, 0x1b, 0xe6, 0xeb, 0xe3, 0xfe, 0xd5, 0xfa, 0xdd, 0xfc,
  0xdd, 0x05, 0xef, 0x1e, 0x15, 0x33, 0x11, 0x3a, 0x08, 0x23, 0xfa, 0x17,
  0xf2, 0x14, 0x01, 0x14, 0xf8, 0x10, 0xff, 0x04, 0xf6, 0xf9, 0xe7, 0xe9,
  0xda, 0xf0, 0xe8, 0xff, 0x18, 0x3c, 0x0a, 0x14, 0xdc, 0xe8, 0xdc, 0xf7,
  0xda, 0xf9, 0xd3, 0xf2, 0xda, 0x04, 0xea, 0x1d, 0x0d, 0x31, 0x1a, 0x41,
  0x10, 0x29, 0xf5, 0x1c, 0x08, 0x15, 0x02, 0x16, 0xf6, 0x10, 0xf8, 0xfc,
  0xf6, 0xf9, 0xe8, 0xf3, 0xd8, 0xe8, 0xe8, 0xef, 0x1e, 0x45, 0x19, 0x1d,
  0xe2, 0xe2, 0xe0, 0xf1, 0xe9, 0xfa, 0xd4, 0xf3, 0xdd, 0x09, 0xe9, 0x1c,
  0x08, 0x37, 0x1e, 0x39, 0x09, 0x25, 0xf4, 0x19, 0x00, 0x15, 0xff, 0x0e,
  0xf9, 0x0c, 0xf9, 0xfe, 0xf1, 0xf1, 0xe5, 0xec, 0xe1, 0xe7, 0xe8, 0xf6,
  0x28, 0x43, 0x19, 0x1e, 0xe5, 0xed, 0xdb, 0xf5, 0xe5, 0xf7, 0xd6, 0xf1,
  0xd6, 0x00, 0xe9, 0x22, 0x0d, 0x36, 0x1e, 0x34, 0x12, 0x2a, 0xfa, 0x10,
  0xfa, 0x10, 0xfb, 0x09, 0xf8, 0x03, 0xf9, 0xfe, 0xec, 0xf2, 0xea, 0xeb,
  0xdd, 0xe3, 0xe4, 0xf2, 0x25, 0x41, 0x1b, 0x1d, 0xe6, 0xec, 0xe2, 0xeb,
  0xe4, 0xf3, 0xd9, 0xe9, 0xd3, 0x06, 0xe7, 0x14, 0x0b, 0x30, 0x1d, 0x38,
  0x0f, 0x24, 0x09, 0x1a, 0xff, 0x0b, 0x07, 0x09, 0xff, 0x0b, 0x02, 0x03,
  0xfe, 0xfa, 0xf1, 0xf2, 0xe6, 0xf4, 0xe0, 0xf4, 0x29, 0x46, 0x18, 0x22,
  0xed, 0xef, 0xe1, 0xf6, 0xed, 0xf5, 0xdc, 0xf0, 0xe3, 0x06, 0xeb, 0x13,
  0x07, 0x2e, 0x20, 0x42, 0x10, 0x2b, 0x03, 0x10, 0xfa, 0x10, 0x00, 0x09,
  0x06, 0x06, 0x06, 0xf8, 0xf0, 0xf9, 0xe9, 0xe9, 0xe3, 0xec, 0xe1, 0xeb,
  0x23, 0x40, 0x15, 0x20, 0xf0, 0xf2, 0xe0, 0xec, 0xf1, 0xfa, 0xd7, 0xe9,
  0xd7, 0x07, 0xf1, 0x16, 0x0a, 0x31, 0x23, 0x3d, 0x18, 0x27, 0x05, 0x14,
  0x05, 0x0b, 0xfc, 0x03, 0xfa, 0xfe, 0x05, 0xfd, 0xee, 0xf8, 0xe9, 0xef,
  0xdc, 0xe6, 0xde, 0xe4, 0x27, 0x3d, 0x1e, 0x24, 0xee, 0xed, 0xd8, 0xff,
  0xe7, 0xfc, 0xd3, 0xf0, 0xd9, 0x0c, 0xff, 0x19, 0x16, 0x2e, 0x20, 0x3f,
  0x13, 0x2a, 0x02, 0x12, 0x05, 0x10, 0xfc, 0x07, 0xf1, 0xfc, 0x03, 0x02,
  0xf3, 0xfa, 0xee, 0xf0, 0xdf, 0xe5, 0xe4, 0xec, 0x25, 0x3f, 0x19, 0x1f,
  0xf0, 0xed, 0xd5, 0xf7, 0xeb, 0xf1, 0xd3, 0xf0, 0xdd, 0x0b, 0xfb, 0x23,
  0x11, 0x2d, 0x1f, 0x3f, 0x20, 0x2a, 0x07, 0x17, 0x09, 0x17, 0x04, 0x0d,
  0xf6, 0xf5, 0xf3, 0xf6, 0xf2, 0xf4, 0xe5, 0xe5, 0xe7, 0xe9, 0xea, 0xf0,
  0x33, 0x40, 0x1d, 0x14, 0xea, 0xf4, 0xde, 0xfa, 0xeb, 0xf0, 0xcd, 0xee,
  0xd1, 0x00, 0xf5, 0x20, 0x15, 0x38, 0x20, 0x3f, 0x21, 0x27, 0x06, 0x15,
  0x11, 0x14, 0x0a, 0x0a, 0xf7, 0xfa, 0xf3, 0xfd, 0xf5, 0xf4, 0xea, 0xe5,
  0xdd, 0xe7, 0xe9, 0xf2, 0x2b, 0x36, 0x18, 0x16, 0xed, 0xf7, 0xdf, 0xec,
  0xe0, 0xed, 0xc6, 0xdf, 0xd0, 0x03, 0xea, 0x16, 0x07, 0x2f, 0x20, 0x35,
  0x17, 0x2e, 0x0a, 0x15, 0x11, 0x19, 0x14, 0x10, 0xf9, 0x02, 0xfc, 0x01,
  0xf1, 0x00, 0xe8, 0xeb, 0xdb, 0xe7, 0xe0, 0xf2, 0x2a, 0x39, 0x1e, 0x16,
  0xe7, 0xf4, 0xd4, 0xea, 0xdb, 0xf1, 0xce, 0xe2, 0xce, 0x02, 0xee, 0x1a,
  0x05, 0x26, 0x1b, 0x2a, 0x19, 0x29, 0x06, 0x11, 0x0a, 0x17, 0x07, 0x0f,
  0x01, 0x06, 0xfa, 0x00, 0xf2, 0xfe, 0xed, 0xea, 0xe5, 0xe6, 0xf2, 0xf5,
  0x2a, 0x2c, 0x18, 0x0b, 0xe1, 0xf2, 0xd8, 0xee, 0xe2, 0xf0, 0xcc, 0xe4,
  0xd2, 0xfe, 0xee, 0x1a, 0x11, 0x28, 0x19, 0x1f, 0x12, 0x20, 0x02, 0x12,
  0x09, 0x17, 0x0c, 0x12, 0x00, 0xff, 0xec, 0x03, 0xf0, 0xfb, 0xf0, 0xed,
  0xdb, 0xe4, 0xe3, 0xe9, 0x30, 0x33, 0x15, 0x0b, 0xe8, 0xf6, 0xe1, 0xf1,
  0xea, 0xf0, 0xcc, 0xe3, 0xd5, 0xff, 0xed, 0x13, 0x0d, 0x22, 0x18, 0x23,
  0x09, 0x1d, 0x02, 0x15, 0x15, 0x1e, 0x1a, 0x18, 0x03, 0x05, 0x01, 0xfb,
  0xf8, 0xfc, 0xef, 0xf0, 0xe5, 0xe7, 0xe7, 0xee, 0x2a, 0x30, 0x10, 0x0d,
  0xed, 0xf9, 0xd1, 0xf2, 0xd7, 0xed, 0xc9, 0xea, 0xd8, 0xfe, 0xf1, 0x1a,
  0x0d, 0x21, 0x10, 0x20, 0x0c, 0x1d, 0xfd, 0x12, 0x1c, 0x22, 0x21, 0x11,
  0x0c, 0x05, 0x03, 0x00, 0xee, 0xf3, 0xe5, 0xe3, 0xe0, 0xe3, 0xe2, 0xe7,
  0x2c, 0x30, 0x11, 0x0b, 0xeb, 0xf7, 0xd1, 0xf8, 0xe1, 0xec, 0xc6, 0xef,
  0xd6, 0x04, 0xec, 0x12, 0x0b, 0x1e, 0x09, 0x1c, 0x0d, 0x1c, 0xf5, 0x17,
  0x11, 0x21, 0x1b, 0x17, 0x07, 0x0d, 0x0b, 0x08, 0xf3, 0xf9, 0xf1, 0xe3,
  0xe2, 0xea, 0xe3, 0xed, 0x2c, 0x36, 0x13, 0x0e, 0xf0, 0xff, 0xda, 0xfa,
  0xe1, 0xf9, 0xcc, 0xf5, 0xde, 0x0a, 0xec, 0x12, 0x04, 0x26, 0x11, 0x19,
  0x08, 0x18, 0xfc, 0x1c, 0x17, 0x22, 0x18, 0x16, 0x0c, 0x12, 0x00, 0x08,
  0xf5, 0xff, 0xea, 0xf8, 0xee, 0xf1, 0xee, 0xf1, 0x1c, 0x26, 0x0a, 0x0a,
  0xec, 0xfd, 0xde, 0xfb, 0xea, 0x05, 0xdc, 0xf4, 0xda, 0x04, 0xe8, 0x16,
  0x05, 0x1d, 0x12, 0x1f, 0x0d, 0x18, 0xfa, 0x11, 0x11, 0x24, 0x1a, 0x14,
  0x0b, 0x0f, 0xfd, 0x03, 0xf1, 0xfa, 0xea, 0xf8, 0xe3, 0xf7, 0xee, 0xf7,
  0x21, 0x28, 0x0d, 0x0d, 0xf1, 0x03, 0xe1, 0x00, 0xee, 0x07, 0xe0, 0xfd,
  0xe5, 0x08, 0xf3, 0x13, 0xfc, 0x1c, 0x0b, 0x1f, 0x09, 0x1a, 0x02, 0x18,
  0x19, 0x25, 0x23, 0x1c, 0x0c, 0x13, 0x06, 0x0c, 0xf3, 0x02, 0xf8, 0xfd,
  0xe8, 0xf9, 0xf8, 0xfc, 0x26, 0x1f, 0x03, 0x0c, 0xf0, 0xfe, 0xe2, 0x04,
  0xf1, 0x02, 0xea, 0xfd, 0xe5, 0x09, 0xf1, 0x17, 0xfd, 0x13, 0x07, 0x16,
  0x05, 0x1b, 0x00, 0x13, 0x13, 0x21, 0x1f, 0x1c, 0x11, 0x0d, 0x01, 0x0a,
  0xf4, 0xfc, 0xea, 0xf5, 0xeb, 0xef, 0xf9, 0xf8, 0x12, 0x14, 0xf9, 0x06,
  0xec, 0x00, 0xe1, 0x09, 0xe8, 0x00, 0xe5, 0x04, 0xe5, 0x06, 0xe6, 0x0a,
  0xf1, 0x12, 0xfd, 0x0e, 0xfa, 0x0d, 0xf8, 0x0b, 0x09, 0x1e, 0x17, 0x14,
  0x10, 0x0c, 0xfe, 0x04, 0xed, 0xfd, 0xe8, 0xef, 0xed, 0xf7, 0xf6, 0x02,
  0x10, 0x17, 0xfc, 0x05, 0xe7, 0xfe, 0xd8, 0x03, 0xed, 0xfd, 0xd7, 0xfc,
  0xe1, 0x06, 0xe4, 0x0c, 0xef, 0x0f, 0xf4, 0x0f, 0xfe, 0x0b, 0xf4, 0x11,
  0x07, 0x1b, 0x10, 0x17, 0x03, 0x07, 0xfc, 0xfd, 0xea, 0xfa, 0xec, 0xf9,
  0xf1, 0xf3, 0xf0, 0xf8, 0x03, 0x0c, 0xf4, 0x04, 0xe0, 0x00, 0xe3, 0x04,
  0xeb, 0xfe, 0xde, 0xfc, 0xd7, 0x06, 0xdf, 0x00, 0xe9, 0x0d, 0xf2, 0x08,
  0xee, 0x09, 0xf3, 0x0c, 0xfe, 0x17, 0x0b, 0x11, 0x09, 0x09, 0xfd, 0x03,
  0xf6, 0x01, 0xee, 0xf9, 0xeb, 0xfa, 0xf7, 0xfb, 0xee, 0x06, 0xec, 0xfa,
  0xdf, 0xfc, 0xd8, 0xfd, 0xe6, 0xfa, 0xdd, 0xfd, 0xde, 0xfd, 0xd9, 0xfe,
  0xe4, 0x07, 0xed, 0x08, 0xef, 0x08, 0xe5, 0x0b, 0xf4, 0x0c, 0x01, 0x0b,
  0xfc, 0x06, 0xef, 0x05, 0xf0, 0xfc, 0xeb, 0xf7, 0xee, 0xf3, 0xf5, 0x01,
  0xef, 0xf0, 0xfe, 0xff, 0x03, 0x04, 0x08, 0x02, 0x03, 0xfb, 0xfc, 0xfa,
  0xfa, 0xf8, 0xf9, 0xf7, 0xfe, 0xfa, 0xfd, 0xfb, 0xff, 0xfb, 0x00, 0xf9,
  0xfe, 0xfd, 0x00, 0xfb, 0xff, 0xf7, 0xfa, 0xf5, 0xf3, 0xef, 0xf5, 0xed,
  0xf4, 0xf4, 0xf9, 0xf4, 0xf1, 0xf4, 0xff, 0x02, 0x04, 0x06, 0x0b, 0x08,
  0x08, 0x01, 0x06, 0x04, 0x00, 0xfb, 0xfd, 0xff, 0x01, 0x00, 0x00, 0xfb,
  0x01, 0xfd, 0x01, 0x03, 0x05, 0xff, 0x05, 0x00, 0x03, 0xfb, 0xfe, 0xf8,
  0xf8, 0xf3, 0xf6, 0xf3, 0xf5, 0xf5, 0xfd, 0xfa, 0xf4, 0xf9, 0x03, 0x0a,
  0x05, 0x04, 0x07, 0x07, 0x05, 0x03, 0x01, 0x01, 0xfe, 0xfb, 0xf7, 0xfc,
  0xfd, 0x01, 0xff, 0x03, 0x02, 0x00, 0x03, 0xfe, 0x00, 0x01, 0x01, 0x00,
  0x03, 0xff, 0xff, 0xf7, 0xf8, 0xf8, 0xf9, 0xf4, 0xf9, 0xf6, 0xfa, 0xf8,
  0xf6, 0xf7, 0x03, 0x09, 0x07, 0x0a, 0x0b, 0x0a, 0x0a, 0x07, 0xff, 0x01,
  0xfe, 0x04, 0xf9, 0x01, 0x00, 0x07, 0x02, 0x06, 0x05, 0x07, 0x05, 0x06,
  0x07, 0x06, 0x06, 0x07, 0x09, 0x07, 0x05, 0xfe, 0xfd, 0xfe, 0xfc, 0xfa,
  0xf8, 0xfa, 0xfb, 0xfe, 0xf2, 0xf2, 0xfc, 0x01, 0x00, 0xff, 0x00, 0x01,
  0x01, 0x01, 0xfe, 0x04, 0xf9, 0xfb, 0xf7, 0x02, 0xfa, 0x00, 0xfa, 0x04,
  0x00, 0x04, 0x01, 0x03, 0x02, 0x06, 0x05, 0x07, 0x05, 0x07, 0x01, 0xfc,
  0xf7, 0xf9, 0xf8, 0xf4, 0xf4, 0xf4, 0xf6, 0xfa, 0xf6, 0xfa, 0x07, 0x0c,
  0xfd, 0xfa, 0xfe, 0xff, 0x03, 0xfe, 0xfb, 0x03, 0xfc, 0xff, 0xf8, 0x02,
  0xfd, 0x07, 0x01, 0x04, 0xff, 0x02, 0x05, 0x0a, 0x04, 0x08, 0x08, 0x08,
  0x07, 0x0b, 0x04, 0x02, 0xfb, 0x02, 0xf8, 0xfc, 0xf7, 0xfe, 0xfb, 0xff,
  0xf5, 0xf7, 0x01, 0x01, 0xfa, 0xfa, 0xfe, 0x05, 0x04, 0xfe, 0x00, 0x00,
  0xfc, 0x03, 0x01, 0x09, 0x03, 0x10, 0x02, 0x0f, 0x07, 0x0a, 0x03, 0x0c,
  0x09, 0x0b, 0x04, 0x07, 0x03, 0x04, 0x02, 0x03, 0xfe, 0xfe, 0xfb, 0x02,
  0xfd, 0xff, 0xfd, 0x02, 0xf1, 0xf3, 0xfd, 0xf5, 0xf7, 0xf3, 0xfd, 0xfc,
  0x08, 0x0a, 0x01, 0x00, 0x00, 0xfb, 0xff, 0x07, 0x04, 0x0f, 0x08, 0x13,
  0x07, 0x0b, 0x05, 0x0a, 0x09, 0x0c, 0x05, 0x0e, 0x02, 0x10, 0x01, 0x01,
  0x00, 0x0a, 0xfd, 0x01, 0xfe, 0x05, 0xfe, 0x04, 0xe5, 0xf9, 0xf4, 0xe7,
  0xef, 0xf6, 0xf8, 0xf6, 0xfd, 0xfc, 0xf9, 0xef, 0xfe, 0x08, 0x03, 0x08,
  0x09, 0x13, 0x06, 0x17, 0x06, 0x08, 0xff, 0x04, 0x02, 0x06, 0x04, 0x08,
  0xfe, 0x07, 0xff, 0x05, 0xff, 0x06, 0xfe, 0x09, 0xfc, 0x07, 0xf8, 0x07,
  0xeb, 0xf1, 0xf5, 0xed, 0xef, 0xf1, 0xf7, 0xf1, 0xff, 0xf5, 0xf8, 0xf9,
  0xff, 0xfa, 0x05, 0x10, 0x0c, 0x18, 0x09, 0x1a, 0x05, 0x0a, 0xfe, 0x0a,
  0x06, 0x0e, 0x03, 0x08, 0x02, 0x07, 0x01, 0x11, 0x03, 0x10, 0x00, 0x13,
  0xfc, 0x0a, 0xfe, 0x11, 0xf1, 0x0c, 0xfa, 0xe6, 0xe8, 0xde, 0xf1, 0xf6,
  0xf7, 0xf4, 0xfc, 0xef, 0xfd, 0xfd, 0x02, 0x0e, 0x13, 0x13, 0x06, 0x17,
  0x00, 0x03, 0xfc, 0x00, 0xfa, 0x03, 0xff, 0x04, 0xfc, 0x0e, 0xfc, 0x0d,
  0x06, 0x10, 0x02, 0x15, 0x01, 0x14, 0xfd, 0x13, 0xee, 0xff, 0xf6, 0xdd,
  0xe4, 0xd3, 0xf3, 0xeb, 0xfd, 0xf2, 0xfc, 0xed, 0x03, 0x01, 0x11, 0x0b,
  0x10, 0x1d, 0x11, 0x0c, 0xfe, 0x01, 0xf9, 0x06, 0x04, 0x0a, 0xff, 0x0c,
  0x03, 0x10, 0x05, 0x18, 0x04, 0x18, 0x06, 0x1d, 0x03, 0x14, 0xff, 0x18,
  0xe7, 0xfa, 0xf7, 0xe3, 0xe3, 0xd1, 0xec, 0xea, 0xfc, 0xed, 0x02, 0xe4,
  0xfd, 0xf1, 0x16, 0x0b, 0x14, 0x1c, 0x11, 0x0a, 0xf8, 0xfe, 0xf7, 0x05,
  0x03, 0x08, 0x01, 0x0b, 0xfe, 0x11, 0x03, 0x12, 0x03, 0x21, 0x05, 0x22,
  0x06, 0x1e, 0x00, 0x1e, 0xef, 0xf6, 0xf9, 0xe0, 0xd8, 0xd0, 0xef, 0xf0,
  0x05, 0xf8, 0x02, 0xe4, 0x05, 0xf0, 0x15, 0x0b, 0x1b, 0x19, 0x12, 0x0e,
  0xf8, 0xff, 0xf0, 0x05, 0x01, 0xf9, 0xfa, 0x06, 0xfc, 0x10, 0x00, 0x11,
  0x01, 0x21, 0x09, 0x26, 0x0a, 0x28, 0xfe, 0x20, 0xe0, 0xf0, 0xf7, 0xdb,
  0xcf, 0xcb, 0xea, 0xee, 0xff, 0xee, 0xfe, 0xe6, 0x01, 0xe7, 0x1b, 0x07,
  0x1c, 0x12, 0x0a, 0x06, 0xec, 0xf4, 0xec, 0x02, 0xf8, 0xf3, 0xfa, 0x07,
  0xf9, 0x12, 0xfb, 0x19, 0x03, 0x26, 0x0c, 0x28, 0x08, 0x20, 0xfa, 0x20,
  0xf0, 0x01, 0xfa, 0xdc, 0xd8, 0xc5, 0xef, 0xf9, 0x01, 0xf8, 0x04, 0xe0,
  0x07, 0xef, 0x1d, 0x06, 0x28, 0x29, 0x13, 0x0e, 0xee, 0xf6, 0xef, 0x02,
  0xfc, 0x06, 0xfb, 0x05, 0xf8, 0x15, 0xfb, 0x1d, 0x04, 0x2c, 0x0b, 0x33,
  0x07, 0x2b, 0x02, 0x20, 0xec, 0xfc, 0xf4, 0xd7, 0xd5, 0xcf, 0xfd, 0xf4,
  0x06, 0xef, 0x00, 0xdc, 0x01, 0xf0, 0x25, 0x0c, 0x27, 0x16, 0x0f, 0xfd,
  0xe6, 0xe8, 0xe8, 0xfa, 0xf5, 0xf7, 0xf3, 0xfd, 0xf5, 0x0f, 0x00, 0x18,
  0xff, 0x26, 0x0d, 0x38, 0x08, 0x2a, 0xfe, 0x25, 0xec, 0xfe, 0xe9, 0xd8,
  0xd4, 0xca, 0xf1, 0xe9, 0x0a, 0xee, 0x03, 0xe4, 0x0e, 0xe9, 0x29, 0x07,
  0x26, 0x22, 0x12, 0x08, 0xeb, 0xf4, 0xdf, 0xf2, 0xfa, 0xf9, 0xef, 0xfa,
  0xf7, 0x0e, 0xf2, 0x17, 0x00, 0x22, 0x00, 0x28, 0x06, 0x2b, 0xfd, 0x1a,
  0xf1, 0xff, 0xf0, 0xd7, 0xd5, 0xd4, 0xee, 0xed, 0x15, 0xfa, 0x17, 0xe1,
  0x0b, 0xe1, 0x2c, 0x0c, 0x31, 0x1b, 0x0d, 0x02, 0xee, 0xf1, 0xea, 0xfa,
  0xfe, 0xf6, 0xf4, 0x01, 0xfc, 0x15, 0xf6, 0x26, 0x05, 0x39, 0x0e, 0x2e,
  0x0e, 0x3b, 0x04, 0x26, 0xf1, 0xf9, 0xf5, 0xdd, 0xd8, 0xd4, 0xf7, 0xee,
  0x0b, 0xec, 0x09, 0xe0, 0x0a, 0xdc, 0x29, 0x02, 0x2f, 0x1c, 0x0c, 0x00,
  0xe1, 0xe3, 0xe4, 0xf9, 0xfc, 0xfd, 0xf7, 0x03, 0xff, 0x11, 0xff, 0x22,
  0x07, 0x3a, 0x0a, 0x39, 0x0d, 0x42, 0x00, 0x30, 0xf6, 0x04, 0xf8, 0xd9,
  0xd6, 0xd4, 0xf9, 0xee, 0x08, 0xe3, 0x12, 0xdf, 0x0a, 0xde, 0x29, 0xfe,
  0x29, 0x1a, 0x08, 0x00, 0xe4, 0xf2, 0xe8, 0xff, 0xff, 0x07, 0xf9, 0x02,
  0x01, 0x07, 0xfa, 0x33, 0x01, 0x32, 0x09, 0x46, 0x09, 0x36, 0x00, 0x30,
  0xed, 0x05, 0xec, 0xd5, 0xd3, 0xd0, 0xf4, 0xf1, 0x09, 0xee, 0x09, 0xd0,
  0x0a, 0xd1, 0x2c, 0xfe, 0x2a, 0x12, 0x02, 0x04, 0xde, 0xef, 0xe0, 0xf6,
  0xef, 0xf7, 0xf3, 0xf9, 0xf5, 0x07, 0xf7, 0x24, 0x07, 0x3e, 0x0e, 0x3d,
  0x0c, 0x44, 0x03, 0x37, 0xe9, 0x03, 0xf4, 0xe2, 0xdb, 0xdc, 0xfa, 0xf2,
  0x0f, 0xec, 0x0b, 0xe0, 0x11, 0xd5, 0x2a, 0xfe, 0x38, 0x13, 0x02, 0xf6,
  0xe2, 0xe5, 0xd9, 0xef, 0xf6, 0xf6, 0xf1, 0xf8, 0xf7, 0x0b, 0xf1, 0x2b,
  0xfe, 0x2f, 0x01, 0x3a, 0x05, 0x3f, 0xfe, 0x27, 0xf0, 0x01, 0xf9, 0xe3,
  0xda, 0xd6, 0xf6, 0xf4, 0x0a, 0xf0, 0x08, 0xdd, 0x0b, 0xda, 0x2f, 0xf5,
  0x29, 0x0a, 0xfe, 0xf1, 0xd6, 0xee, 0xdf, 0xeb, 0xf2, 0xf6, 0xed, 0xfe,
  0xf5, 0x0a, 0xec, 0x2a, 0xfd, 0x35, 0x02, 0x4b, 0x09, 0x44, 0x03, 0x38,
  0xf7, 0x0f, 0x04, 0xeb, 0xdf, 0xde, 0xf9, 0xf8, 0x18, 0xf3, 0x0a, 0xd7,
  0x0d, 0xd4, 0x2e, 0xeb, 0x2f, 0x12, 0x11, 0x03, 0xe1, 0xf0, 0xda, 0x00,
  0xf6, 0xf9, 0xf3, 0xfe, 0xf9, 0x11, 0xf3, 0x27, 0x02, 0x36, 0x06, 0x44,
  0x07, 0x42, 0x02, 0x34, 0xf7, 0x04, 0xfc, 0xda, 0xd5, 0xdb, 0xeb, 0xee,
  0x10, 0xfa, 0x0f, 0xdb, 0x11, 0xd9, 0x2c, 0xf2, 0x34, 0x1c, 0x05, 0x05,
  0xe2, 0xf1, 0xe3, 0xf7, 0xf8, 0x02, 0xfb, 0x02, 0x00, 0x1d, 0x00, 0x2f,
  0x02, 0x3c, 0x09, 0x54, 0x10, 0x46, 0xff, 0x38, 0xfe, 0x01, 0xfa, 0xdd,
  0xd8, 0xdf, 0xeb, 0xf4, 0x13, 0xf2, 0x0e, 0xe3, 0x15, 0xdd, 0x33, 0xf5,
  0x2d, 0x09, 0x08, 0x04, 0xe3, 0xf4, 0xe4, 0xf8, 0xee, 0xfa, 0xf3, 0xfe,
  0xfa, 0x14, 0x02, 0x2b, 0xf8, 0x3f, 0x06, 0x52, 0x10, 0x47, 0xfd, 0x3d,
  0x03, 0x05, 0xf3, 0xe4, 0xd8, 0xe4, 0xec, 0xfc, 0x10, 0xfa, 0x13, 0xe8,
  0x18, 0xdd, 0x33, 0xf0, 0x3e, 0x0a, 0xfe, 0x05, 0xdf, 0xf5, 0xe2, 0xf4,
  0xf5, 0xfa, 0xfa, 0x01, 0xfb, 0x1f, 0x06, 0x2f, 0xfd, 0x3f, 0x09, 0x4d,
  0x08, 0x4b, 0x05, 0x35, 0xf8, 0x02, 0xef, 0xdd, 0xcb, 0xd9, 0xe7, 0x01,
  0x12, 0x02, 0x0d, 0xe7, 0x1a, 0xe3, 0x39, 0xfa, 0x33, 0x0d, 0x03, 0x05,
  0xe1, 0xee, 0xd5, 0xfb, 0xf1, 0xfc, 0xf4, 0xfb, 0xff, 0x0e, 0x02, 0x2e,
  0x02, 0x3b, 0xff, 0x4b, 0x03, 0x4c, 0xfc, 0x39, 0xf1, 0x0d, 0xf2, 0xde,
  0xca, 0xdb, 0xe6, 0x01, 0x0b, 0xfc, 0x15, 0xee, 0x1a, 0xda, 0x36, 0xfc,
  0x36, 0x0e, 0x01, 0x07, 0xe9, 0xef, 0xd6, 0xef, 0xeb, 0xfd, 0xf5, 0xfc,
  0xfd, 0x14, 0xfd, 0x2b, 0xfd, 0x3e, 0x01, 0x52, 0x0e, 0x50, 0x03, 0x45,
  0xef, 0x05, 0xf9, 0xdf, 0xbf, 0xd9, 0xe2, 0xf7, 0x0a, 0xfe, 0x12, 0xe9,
  0x19, 0xe2, 0x36, 0xf8, 0x35, 0x0b, 0x04, 0x0b, 0xdb, 0xf1, 0xd7, 0xfb,
  0xe8, 0xf6, 0xfe, 0xfe, 0xf8, 0x17, 0xf4, 0x26, 0xfc, 0x36, 0xff, 0x54,
  0x0b, 0x54, 0x05, 0x45, 0xf1, 0x03, 0xf4, 0xdd, 0xc1, 0xdb, 0xe1, 0xff,
  0x07, 0x07, 0x17, 0xf1, 0x16, 0xe3, 0x32, 0xf8, 0x34, 0x08, 0xf8, 0x0f,
  0xd9, 0xee, 0xd3, 0xfb, 0xdf, 0xfb, 0xf5, 0x07, 0xfa, 0x18, 0xf1, 0x2b,
  0x07, 0x38, 0xfc, 0x5c, 0x0b, 0x5b, 0x02, 0x42, 0xf2, 0x0b, 0xf3, 0xde,
  0xbb, 0xe2, 0xe4, 0xfe, 0x08, 0x06, 0x0d, 0xf2, 0x0e, 0xdf, 0x29, 0xfd,
  0x30, 0x18, 0x01, 0x0b, 0xd5, 0xf6, 0xd8, 0xfc, 0xdb, 0xf7, 0xee, 0xfe,
  0x09, 0x1b, 0xf5, 0x29, 0xf0, 0x36, 0xf3, 0x4d, 0x04, 0x4e, 0xfb, 0x46,
  0xf1, 0x0d, 0xfb, 0xe5, 0xc1, 0xe3, 0xe1, 0x02, 0x05, 0x03, 0x0f, 0xf7,
  0x12, 0xe4, 0x31, 0xf5, 0x2c, 0x1b, 0x05, 0x09, 0xd8, 0xfd, 0xd7, 0x02,
  0xe1, 0x03, 0xf2, 0xfa, 0x01, 0x1a, 0xfd, 0x2b, 0xf0, 0x36, 0xf6, 0x54,
  0x06, 0x57, 0x00, 0x4d, 0xe8, 0x09, 0xf1, 0xe4, 0xbc, 0xd9, 0xd6, 0x07,
  0x04, 0x08, 0x07, 0xf5, 0x17, 0xe7, 0x2a, 0xef, 0x24, 0x0e, 0x00, 0x07,
  0xd0, 0xfc, 0xd5, 0xfe, 0xde, 0xfd, 0xf3, 0xff, 0xf4, 0x12, 0xf7, 0x2e,
  0xf5, 0x3e, 0xf5, 0x54, 0x09, 0x5c, 0x02, 0x4c, 0xe6, 0x13, 0xf3, 0xe8,
  0xc0, 0xe0, 0xd5, 0x0f, 0x08, 0x09, 0x04, 0xf5, 0x0f, 0xe4, 0x36, 0x01,
  0x36, 0x1d, 0xf8, 0x05, 0xd0, 0xfb, 0xdc, 0x01, 0xdf, 0xfa, 0xed, 0xf8,
  0xf6, 0x12, 0x05, 0x32, 0xf7, 0x46, 0xfa, 0x5d, 0x0d, 0x5c, 0x0e, 0x4b,
  0xf2, 0x20, 0xfc, 0xee, 0xc3, 0xeb, 0xda, 0x0e, 0x06, 0x08, 0x11, 0xfa,
  0x10, 0xeb, 0x33, 0x03, 0x3d, 0x19, 0xff, 0x00, 0xd1, 0x00, 0xe0, 0x09,
  0xe7, 0x02, 0xef, 0x02, 0xf8, 0x14, 0x01, 0x2f, 0xf9, 0x40, 0xf6, 0x5a,
  0x08, 0x64, 0x08, 0x53, 0xef, 0x21, 0xf3, 0xe9, 0xc9, 0xec, 0xce, 0x08,
  0x08, 0x09, 0x06, 0xf7, 0x1c, 0xf2, 0x35, 0xfb, 0x26, 0x12, 0xf6, 0x08,
  0xd2, 0xf5, 0xd9, 0x03, 0xe7, 0xf8, 0xf3, 0x00, 0xf6, 0x0f, 0xf8, 0x2a,
  0xfe, 0x37, 0xf0, 0x57, 0x07, 0x5e, 0x06, 0x49, 0xeb, 0x1c, 0xf8, 0xf6,
  0xc6, 0xeb, 0xce, 0x07, 0xf9, 0x04, 0x01, 0xf5, 0x12, 0xef, 0x2e, 0xfa,
  0x1b, 0x08, 0xf0, 0x01, 0xd4, 0xf4, 0xd1, 0xfb, 0xe0, 0xf6, 0xf4, 0xfa,
  0xf4, 0x19, 0xfa, 0x2a, 0xf2, 0x37, 0xf1, 0x52, 0x05, 0x5e, 0x04, 0x4d,
  0xe2, 0x19, 0xf0, 0xf5, 0xc6, 0xeb, 0xc8, 0x06, 0x01, 0x07, 0x0a, 0xf3,
  0x16, 0xf8, 0x3f, 0xfb, 0x26, 0x11, 0xf9, 0x01, 0xcb, 0xf8, 0xd4, 0xfd,
  0xe4, 0x00, 0xee, 0xfc, 0xf5, 0x17, 0xf8, 0x2a, 0x00, 0x40, 0xfb, 0x5b,
  0x0d, 0x61, 0x0f, 0x53, 0xea, 0x1b, 0xec, 0xf3, 0xc7, 0xf1, 0xd0, 0x0a,
  0xf4, 0x0c, 0x0b, 0xf8, 0x1e, 0xf5, 0x36, 0x04, 0x24, 0x11, 0xea, 0xff,
  0xce, 0xfd, 0xd5, 0x00, 0xdf, 0xff, 0xeb, 0xff, 0xf8, 0x12, 0xf9, 0x37,
  0xf9, 0x3c, 0xfa, 0x60, 0x05, 0x64, 0x0d, 0x57, 0xec, 0x18, 0xee, 0xf1,
  0xc6, 0xf0, 0xd3, 0x03, 0xfb, 0x10, 0x07, 0xff, 0x1f, 0xfd, 0x38, 0x09,
  0x29, 0x13, 0xec, 0xfa, 0xc8, 0xfa, 0xdb, 0x04, 0xe0, 0xfb, 0xf6, 0xfe,
  0xf6, 0x1c, 0xf7, 0x34, 0xfd, 0x3e, 0xfb, 0x57, 0x0a, 0x68, 0x09, 0x4e,
  0xea, 0x11, 0xe9, 0xef, 0xcb, 0xf5, 0xd6, 0x02, 0xf8, 0x0a, 0x05, 0x0a,
  0x26, 0x05, 0x34, 0x0b, 0x25, 0x11, 0xeb, 0xff, 0xbf, 0xfc, 0xde, 0x02,
  0xde, 0xf6, 0xea, 0xfe, 0xf6, 0x0f, 0xfa, 0x2d, 0xf5, 0x3e, 0xf2, 0x55,
  0x06, 0x5e, 0x08, 0x53, 0xe6, 0x09, 0xf2, 0xf4, 0xd5, 0xf6, 0xd2, 0x03,
  0xf8, 0x0c, 0x01, 0x0a, 0x29, 0x03, 0x2c, 0x0d, 0x2a, 0x10, 0xe9, 0xfb,
  0xc5, 0xfa, 0xdb, 0xfe, 0xdd, 0xf7, 0xe4, 0xfd, 0xf5, 0x17, 0xf9, 0x28,
  0xfb, 0x3c, 0xf4, 0x4d, 0xfd, 0x61, 0x0b, 0x4f, 0xe1, 0x0d, 0xee, 0xef,
  0xce, 0xf5, 0xd6, 0x06, 0xfc, 0x09, 0x07, 0x0e, 0x24, 0x0d, 0x3b, 0x15,
  0x24, 0x10, 0xe7, 0xf5, 0xc3, 0xf6, 0xda, 0xfb, 0xd6, 0xf6, 0xe0, 0xfc,
  0xec, 0x0d, 0xf8, 0x26, 0xf3, 0x3e, 0xf7, 0x46, 0xfc, 0x56, 0xff, 0x43,
  0xe8, 0x08, 0xec, 0xee, 0xd1, 0xf8, 0xe0, 0x04, 0x01, 0x13, 0x0b, 0x0c,
  0x2a, 0x0f, 0x3e, 0x19, 0x22, 0x12, 0xe7, 0xf6, 0xd2, 0xf8, 0xda, 0x01,
  0xe0, 0xfa, 0xe9, 0x08, 0xf6, 0x13, 0xf4, 0x2e, 0xf5, 0x3c, 0xf8, 0x51,
  0xfa, 0x50, 0x06, 0x47, 0xde, 0x04, 0xef, 0xf2, 0xd2, 0xfa, 0xe2, 0x04,
  0xf7, 0x16, 0x0e, 0x18, 0x3a, 0x18, 0x38, 0x12, 0x30, 0x19, 0xef, 0xfd,
  0xcf, 0xfe, 0xe4, 0x02, 0xe8, 0xfd, 0xf1, 0x08, 0x04, 0x1c, 0xfb, 0x22,
  0xf5, 0x34, 0xf6, 0x40, 0xf9, 0x43, 0xf5, 0x3c, 0xe5, 0x06, 0xef, 0xf4,
  0xd5, 0xfa, 0xdf, 0x01, 0xff, 0x0e, 0x0f, 0x19, 0x3b, 0x17, 0x44, 0x18,
  0x33, 0x11, 0xf0, 0x01, 0xd1, 0xfd, 0xe3, 0x01, 0xf0, 0xfa, 0xeb, 0x07,
  0xfe, 0x15, 0xfc, 0x1e, 0xf0, 0x30, 0xef, 0x35, 0xf1, 0x39, 0xf2, 0x2c,
  0xdd, 0xfc, 0xe8, 0xf1, 0xd5, 0xed, 0xda, 0xfd, 0xf8, 0x0c, 0x06, 0x10,
  0x31, 0x16, 0x41, 0x18, 0x21, 0x05, 0xe3, 0xf8, 0xc8, 0xf6, 0xe1, 0xfd,
  0xec, 0xfa, 0xe9, 0x00, 0xf7, 0x07, 0xf8, 0x10, 0xdf, 0x1b, 0xe2, 0x28,
  0xdf, 0x27, 0xe1, 0x23, 0x01, 0x05, 0x01, 0xfb, 0x00, 0x02, 0x00, 0x02,
  0xfe, 0xfe, 0xfd, 0xfe, 0xfb, 0xfd, 0xf7, 0xfb, 0xf6, 0xf9, 0xed, 0xf3,
  0xf3, 0xf6, 0xf5, 0xf8, 0xf8, 0xf5, 0xf1, 0xf3, 0xee, 0xf6, 0xf1, 0xf9,
  0xef, 0xf4, 0xee, 0xf6, 0xee, 0xf4, 0xeb, 0xf4, 0x09, 0x0b, 0x0a, 0x06,
  0x0b, 0x0c, 0x05, 0x01, 0x09, 0x04, 0xfa, 0xff, 0x01, 0x01, 0xfd, 0xff,
  0xfd, 0xfe, 0xfc, 0xfe, 0xf9, 0x00, 0xfc, 0xfe, 0xf9, 0xf9, 0xf3, 0xf6,
  0xef, 0xf6, 0xf5, 0xfb, 0xf6, 0xf9, 0xf4, 0xfd, 0xf3, 0xf9, 0xf2, 0xf9,
  0x0e, 0x09, 0x0c, 0x0b, 0x11, 0x0d, 0x10, 0x0e, 0x08, 0x09, 0x08, 0x06,
  0x06, 0x03, 0x06, 0x06, 0x02, 0x04, 0x00, 0x01, 0xfd, 0xfe, 0xfd, 0x05,
  0xfe, 0xfd, 0xf4, 0xf9, 0xf5, 0xf8, 0xf7, 0xfb, 0xf3, 0xf7, 0xf3, 0xfb,
  0xf3, 0xfc, 0xf8, 0xfc, 0x10, 0x10, 0x11, 0x13, 0x12, 0x0f, 0x0d, 0x0e,
  0x06, 0xfe, 0x05, 0x07, 0x05, 0x04, 0xff, 0xfe, 0x03, 0x03, 0xfc, 0xfb,
  0xfc, 0x01, 0x02, 0x03, 0xfd, 0xfd, 0xf6, 0xf7, 0xf1, 0xf5, 0xf3, 0xfa,
  0xf4, 0xfa, 0xf3, 0xfb, 0xf5, 0x03, 0xf6, 0xfc, 0x0e, 0x10, 0x15, 0x1e,
  0x1a, 0x1f, 0x16, 0x18, 0x10, 0x0d, 0x0b, 0x0b, 0x0d, 0x0e, 0x0a, 0x05,
  0x0a, 0x0c, 0x06, 0x03, 0x05, 0x0b, 0x05, 0x0d, 0x03, 0x04, 0xf9, 0xfc,
  0xf7, 0xfc, 0xf5, 0xfc, 0xf9, 0x07, 0xf9, 0x03, 0xfc, 0x08, 0xfd, 0x06,
  0x0f, 0x10, 0x09, 0x19, 0x1a, 0x17, 0x0d, 0x10, 0x09, 0x08, 0x06, 0x04,
  0x07, 0x02, 0x04, 0x05, 0x00, 0x00, 0xfe, 0xfd, 0xff, 0x01, 0xfb, 0x05,
  0x05, 0x04, 0xf2, 0xf5, 0xf2, 0xf7, 0xf2, 0xf5, 0xf5, 0x00, 0xf7, 0xff,
  0xf7, 0x00, 0xf8, 0xfb, 0x0a, 0x14, 0x0b, 0x1b, 0x13, 0x1b, 0x0b, 0x0f,
  0x07, 0x0e, 0x07, 0x0b, 0x08, 0x09, 0x02, 0xfc, 0xf8, 0xfb, 0xfa, 0xf8,
  0xf4, 0xfc, 0xf9, 0x00, 0x01, 0x09, 0xf7, 0xfa, 0xf3, 0xfe, 0xf5, 0xf9,
  0xf3, 0x00, 0xf4, 0xfb, 0xf2, 0x02, 0xf4, 0xfc, 0x0d, 0x1c, 0x10, 0x22,
  0x10, 0x1d, 0x09, 0x16, 0x04, 0x0b, 0x01, 0x06, 0x04, 0x0b, 0xfe, 0xfb,
  0xf5, 0xf3, 0xf3, 0xee, 0xf5, 0x03, 0xf9, 0xf6, 0xfd, 0x06, 0xf6, 0xf8,
  0xf6, 0xf8, 0xf7, 0xfc, 0xfa, 0xfb, 0xf8, 0xfb, 0xf7, 0x00, 0xf8, 0x00,
  0x10, 0x12, 0x0c, 0x3b, 0x1d, 0x24, 0x14, 0x24, 0x08, 0x18, 0x0a, 0x14,
  0x01, 0x05, 0xf6, 0xf5, 0xeb, 0xd6, 0xec, 0xe7, 0xf3, 0xf5, 0xfc, 0xfc,
  0x03, 0x05, 0xf9, 0xfc, 0xf8, 0xfc, 0xfd, 0x00, 0xfe, 0x07, 0xfc, 0xfd,
  0xfa, 0x02, 0xfb, 0x03, 0x08, 0x10, 0x0f, 0x37, 0x1d, 0x2c, 0x15, 0x28,
  0x08, 0x1c, 0x07, 0x1b, 0x09, 0x1b, 0xfa, 0xf3, 0xe5, 0xd4, 0xe8, 0xe7,
  0xef, 0xf6, 0x03, 0xff, 0x01, 0xff, 0xf8, 0xf1, 0xf3, 0xee, 0xf8, 0xf2,
  0xfb, 0xfd, 0x00, 0xfb, 0x00, 0x02, 0x02, 0xf8, 0x01, 0x07, 0x05, 0x30,
  0x1b, 0x42, 0x13, 0x2b, 0x11, 0x25, 0x0a, 0x24, 0x0c, 0x0f, 0xf6, 0xef,
  0xdb, 0xcd, 0xe1, 0xe3, 0xef, 0xf5, 0xf7, 0xf6, 0xfe, 0xfe, 0xfa, 0xee,
  0xf3, 0xf1, 0xfe, 0xf4, 0xfa, 0xfa, 0xfe, 0xfc, 0x04, 0xfd, 0x04, 0xfd,
  0x06, 0x0d, 0x03, 0x39, 0x1c, 0x4c, 0x09, 0x31, 0x0a, 0x27, 0x12, 0x15,
  0x0a, 0x10, 0xee, 0xe9, 0xdd, 0xc1, 0xd9, 0xd8, 0xee, 0xfc, 0xfa, 0xfb,
  0xfc, 0x03, 0x00, 0xed, 0xf3, 0xef, 0xfd, 0xf5, 0xf9, 0xfe, 0x03, 0xfe,
  0x01, 0xfc, 0x05, 0xfb, 0x05, 0x0b, 0x04, 0x32, 0x19, 0x46, 0x19, 0x39,
  0x01, 0x1b, 0x0b, 0x29, 0x0a, 0x19, 0xe5, 0xec, 0xd4, 0xcb, 0xd6, 0xe0,
  0xf2, 0x02, 0x00, 0xf4, 0xfd, 0xf2, 0x00, 0xe7, 0xf5, 0xf0, 0x03, 0xf9,
  0x01, 0xf6, 0x0d, 0xf6, 0x04, 0xf8, 0x06, 0x04, 0x06, 0x1d, 0x03, 0x35,
  0x16, 0x50, 0x1c, 0x3c, 0x08, 0x21, 0x10, 0x33, 0x0a, 0x12, 0xea, 0xe7,
  0xcd, 0xc1, 0xd0, 0xd6, 0xf8, 0xff, 0x00, 0xec, 0xfd, 0x03, 0x01, 0xf4,
  0xfe, 0xef, 0x06, 0x01, 0x0d, 0xf6, 0x0e, 0xf6, 0x09, 0xf9, 0x0d, 0xf9,
  0x04, 0x15, 0xf9, 0x3f, 0x28, 0x60, 0x23, 0x34, 0x0e, 0x2a, 0x0e, 0x33,
  0x06, 0x18, 0xdf, 0xdd, 0xc6, 0xbf, 0xd2, 0xcf, 0xf8, 0xee, 0xfc, 0xf0,
  0x03, 0xff, 0xfa, 0xee, 0xf7, 0xe5, 0x02, 0xf4, 0x08, 0xec, 0x10, 0xf4,
  0x08, 0xf9, 0x0e, 0x06, 0xfe, 0x08, 0xf7, 0x45, 0x21, 0x5e, 0x17, 0x35,
  0x0d, 0x26, 0x10, 0x3c, 0x0c, 0x10, 0xdd, 0xdb, 0xbc, 0xaa, 0xcf, 0xe0,
  0xf4, 0xf7, 0x08, 0xf4, 0x05, 0xf5, 0xff, 0xe5, 0xfb, 0xe7, 0x06, 0xef,
  0x07, 0xe6, 0x0c, 0xf4, 0x0f, 0xf9, 0x0f, 0xff, 0xee, 0x04, 0xfb, 0x48,
  0x1e, 0x6a, 0x14, 0x42, 0x10, 0x39, 0x1b, 0x46, 0x0e, 0x15, 0xd3, 0xe0,
  0xb8, 0xb1, 0xc9, 0xcd, 0xf7, 0xfb, 0x09, 0xf8, 0x0d, 0x04, 0x08, 0xeb,
  0xfa, 0xe2, 0x02, 0xf1, 0x09, 0xf6, 0x18, 0xf5, 0x19, 0xf7, 0x17, 0xfe,
  0xed, 0xf8, 0xf0, 0x3c, 0x1d, 0x6e, 0x23, 0x48, 0x05, 0x45, 0x1e, 0x3e,
  0x0e, 0x19, 0xcd, 0xde, 0xbd, 0xb1, 0xcb, 0xce, 0xf8, 0xe4, 0x0d, 0xfb,
  0x0c, 0x01, 0x0d, 0xf1, 0xfb, 0xe4, 0x06, 0xe5, 0x08, 0xf4, 0x1a, 0xf2,
  0x19, 0xf4, 0x18, 0x07, 0xea, 0xf9, 0xea, 0x41, 0x1f, 0x6e, 0x24, 0x39,
  0xf7, 0x2e, 0x0f, 0x31, 0x07, 0x2b, 0xcf, 0xf6, 0xb4, 0xb9, 0xcc, 0xd6,
  0xf7, 0xf5, 0x0d, 0xf7, 0x05, 0xf9, 0x08, 0xec, 0xfc, 0xe7, 0x06, 0xe5,
  0x07, 0xde, 0x12, 0xea, 0x12, 0xe3, 0x16, 0x02, 0xdf, 0xee, 0xf1, 0x3e,
  0x23, 0x79, 0x25, 0x46, 0x03, 0x39, 0x04, 0x36, 0x09, 0x2c, 0xd6, 0xe6,
  0xb4, 0xb3, 0xc8, 0xd2, 0x02, 0xf6, 0x04, 0xf8, 0x06, 0x05, 0x09, 0xf7,
  0xf4, 0xda, 0x01, 0xee, 0x06, 0xe3, 0x14, 0xe0, 0x14, 0xe8, 0x1c, 0xf6,
  0xdb, 0xe1, 0xde, 0x2f, 0x20, 0x77, 0x15, 0x40, 0x03, 0x33, 0x0a, 0x49,
  0x07, 0x27, 0xd2, 0xec, 0xb6, 0xbe, 0xc9, 0xcf, 0xff, 0xf1, 0x0e, 0xef,
  0xfb, 0xfb, 0x00, 0xf4, 0xf2, 0xf1, 0x02, 0xe0, 0x06, 0xea, 0x17, 0xe4,
  0x0f, 0xe8, 0x18, 0xf2, 0xd5, 0xde, 0xe7, 0x42, 0x2a, 0x71, 0x17, 0x44,
  0xff, 0x38, 0x0f, 0x50, 0x03, 0x35, 0xd0, 0xe7, 0xb3, 0xc6, 0xcc, 0xd0,
  0x08, 0xef, 0x11, 0xf7, 0x01, 0xfe, 0x02, 0xf3, 0xfc, 0xee, 0x07, 0xee,
  0x0e, 0xe3, 0x1b, 0xe0, 0x13, 0xe6, 0x1c, 0xe8, 0xd9, 0xe4, 0xe3, 0x43,
  0x2c, 0x7f, 0x13, 0x47, 0xfa, 0x35, 0x0b, 0x54, 0x09, 0x32, 0xd5, 0xf4,
  0xa7, 0xcf, 0xcf, 0xd8, 0x05, 0xfa, 0x13, 0xfb, 0xfb, 0xf4, 0xf8, 0xfb,
  0xf8, 0xe8, 0x05, 0xdd, 0x0f, 0xe2, 0x19, 0xe9, 0x17, 0xe6, 0x1d, 0xf0,
  0xdd, 0xee, 0xdd, 0x47, 0x24, 0x77, 0x0e, 0x38, 0x00, 0x3c, 0x12, 0x57,
  0x0f, 0x2e, 0xc5, 0xf6, 0xab, 0xc6, 0xd2, 0xdf, 0x11, 0x02, 0x12, 0x01,
  0xfd, 0xfb, 0x04, 0xfd, 0xfd, 0xef, 0x03, 0xda, 0x0f, 0xe0, 0x1b, 0xd5,
  0x1b, 0xd5, 0x18, 0xe5, 0xd1, 0xe5, 0xdc, 0x37, 0x25, 0x66, 0x03, 0x3f,
  0xf5, 0x32, 0x0b, 0x5c, 0x12, 0x33, 0xcc, 0xf8, 0xaa, 0xc8, 0xbe, 0xc8,
  0x0e, 0x01, 0x20, 0xfd, 0x03, 0x05, 0x00, 0x03, 0x04, 0xf4, 0x08, 0xe3,
  0x0a, 0xd6, 0x11, 0xd9, 0x1b, 0xd6, 0x19, 0xe0, 0xcd, 0xee, 0xde, 0x4c,
  0x2b, 0x76, 0x10, 0x41, 0xf1, 0x3b, 0x05, 0x4a, 0x01, 0x39, 0xd4, 0x03,
  0x9f, 0xc5, 0xd1, 0xce, 0x0f, 0x02, 0x1f, 0xfe, 0x05, 0x01, 0xfc, 0x01,
  0x00, 0xe4, 0x04, 0xd5, 0x0d, 0xd3, 0x14, 0xd1, 0x19, 0xd9, 0x17, 0xd8,
  0xcb, 0xf7, 0xe1, 0x46, 0x2a, 0x7a, 0x17, 0x45, 0xea, 0x43, 0x0e, 0x4f,
  0x04, 0x37, 0xc8, 0x01, 0xb3, 0xd8, 0xc7, 0xd2, 0x04, 0xf8, 0x20, 0x01,
  0x03, 0x05, 0x09, 0x00, 0x07, 0xf2, 0x0c, 0xe4, 0x16, 0xd9, 0x15, 0xc7,
  0x19, 0xda, 0x1e, 0xe1, 0xbc, 0xe7, 0xd3, 0x3c, 0x26, 0x72, 0x10, 0x47,
  0xe8, 0x3b, 0x01, 0x47, 0xfe, 0x37, 0xcb, 0x05, 0xab, 0xd4, 0xc9, 0xd2,
  0x0e, 0x04, 0x20, 0x04, 0x05, 0x07, 0xfe, 0xff, 0x06, 0xea, 0x07, 0xe0,
  0x12, 0xdc, 0x12, 0xd3, 0x1b, 0xd6, 0x17, 0xd7, 0xc0, 0xea, 0xe2, 0x42,
  0x36, 0x75, 0x16, 0x41, 0xeb, 0x40, 0x08, 0x4b, 0x03, 0x37, 0xc4, 0xff,
  0xa9, 0xce, 0xbd, 0xd3, 0x06, 0xf4, 0x1e, 0x07, 0x09, 0x04, 0x01, 0x01,
  0xfe, 0xfd, 0x0a, 0xdc, 0x14, 0xd9, 0x15, 0xcb, 0x1e, 0xd8, 0x21, 0xd5,
  0xd0, 0xed, 0xd9, 0x47, 0x2f, 0x75, 0x12, 0x4b, 0xe3, 0x3c, 0xff, 0x56,
  0xfe, 0x3e, 0xce, 0x03, 0xa7, 0xda, 0xc6, 0xcd, 0x02, 0x01, 0x16, 0x04,
  0x05, 0x0c, 0xf7, 0x04, 0xfb, 0xf0, 0x05, 0xdd, 0x05, 0xcb, 0x0e, 0xc7,
  0x0d, 0xc8, 0x1e, 0xd5, 0xcb, 0xf1, 0xd3, 0x42, 0x32, 0x78, 0x19, 0x4b,
  0xe0, 0x37, 0xfe, 0x4f, 0xf0, 0x3c, 0xc7, 0x0f, 0xac, 0xdd, 0xc1, 0xc4,
  0x05, 0xf7, 0x1b, 0x0d, 0x10, 0x0d, 0xfb, 0x0a, 0xf7, 0xf2, 0x03, 0xe7,
  0x11, 0xd5, 0x16, 0xc6, 0x12, 0xc8, 0x1a, 0xd2, 0xce, 0xf0, 0xd6, 0x44,
  0x30, 0x71, 0x0b, 0x44, 0xe2, 0x31, 0xfa, 0x4a, 0xf9, 0x3a, 0xc7, 0x0e,
  0xab, 0xdb, 0xc5, 0xd3, 0xfc, 0xf6, 0x1a, 0x0e, 0x13, 0x0f, 0x07, 0x0d,
  0x04, 0xf9, 0x0e, 0xe3, 0x0c, 0xd7, 0x14, 0xc4, 0x1a, 0xc6, 0x1b, 0xdb,
  0xca, 0xed, 0xcd, 0x3b, 0x30, 0x72, 0x17, 0x2f, 0xda, 0x2a, 0x00, 0x4d,
  0x06, 0x3a, 0xc8, 0x08, 0xa6, 0xd3, 0xc5, 0xcd, 0x09, 0xf4, 0x19, 0x06,
  0x0f, 0x0f, 0x08, 0x0a, 0xfa, 0xf9, 0x09, 0xe0, 0x1a, 0xd5, 0x18, 0xc7,
  0x18, 0xd0, 0x22, 0xdd, 0xcd, 0xef, 0xc7, 0x3c, 0x29, 0x6c, 0x23, 0x40,
  0xdf, 0x34, 0xfe, 0x4d, 0x03, 0x34, 0xbe, 0x0a, 0xad, 0xcf, 0xbc, 0xcf,
  0xf7, 0xf0, 0x1c, 0x09, 0x0a, 0xfb, 0x0b, 0x0f, 0xf9, 0xfa, 0x0c, 0xe8,
  0x1b, 0xd8, 0x1c, 0xcc, 0x16, 0xce, 0x1b, 0xc8, 0xc8, 0xeb, 0xd5, 0x49,
  0x36, 0x71, 0x14, 0x31, 0xed, 0x35, 0x12, 0x53, 0x11, 0x3b, 0xc1, 0x10,
  0xac, 0xcd, 0xc9, 0xd4, 0x01, 0xf1, 0x1d, 0x04, 0x0b, 0x09, 0xf8, 0x08,
  0x01, 0xfe, 0x0d, 0xe2, 0x19, 0xd1, 0x18, 0xcc, 0x18, 0xc3, 0x17, 0xc6,
  0xc9, 0xe8, 0xd0, 0x41, 0x3e, 0x65, 0x1e, 0x39, 0xf0, 0x3c, 0x16, 0x56,
  0x12, 0x3c, 0xc3, 0x06, 0xa9, 0xce, 0xcb, 0xe0, 0x0a, 0xf5, 0x0c, 0x06,
  0x05, 0x08, 0xf9, 0x0c, 0xfc, 0x01, 0xfd, 0xdf, 0x1b, 0xcb, 0x1d, 0xc6,
  0x17, 0xc8, 0x0f, 0xcf, 0xc7, 0xe0, 0xcb, 0x42, 0x33, 0x60, 0x24, 0x3b,
  0xf1, 0x32, 0x01, 0x53, 0x07, 0x3a, 0xc6, 0x03, 0xa1, 0xdc, 0xc1, 0xe4,
  0x06, 0xf6, 0x13, 0x09, 0x01, 0x08, 0x08, 0x0b, 0xf8, 0xfd, 0xff, 0xe1,
  0x13, 0xd0, 0x1d, 0xcb, 0x10, 0xbe, 0x06, 0xc4, 0xc8, 0xe2, 0xcd, 0x47,
  0x36, 0x62, 0x2a, 0x44, 0xf1, 0x33, 0x11, 0x55, 0x06, 0x38, 0xca, 0x0b,
  0xae, 0xe3, 0xc7, 0xe9, 0x0b, 0x01, 0x1b, 0x07, 0x0d, 0x09, 0xfc, 0x0a,
  0xfa, 0xfc, 0x10, 0xde, 0x09, 0xd3, 0x13, 0xc4, 0x16, 0xc6, 0x0c, 0xc8,
  0xc8, 0xef, 0xd6, 0x46, 0x32, 0x5d, 0x22, 0x3b, 0xf0, 0x35, 0x0e, 0x55,
  0x04, 0x32, 0xc3, 0x0c, 0xb4, 0xea, 0xd7, 0xf1, 0x0a, 0x07, 0x23, 0x0a,
  0x05, 0x06, 0xed, 0x08, 0xfa, 0xf6, 0x02, 0xdf, 0x0c, 0xd0, 0x1a, 0xc2,
  0x0d, 0xbf, 0x11, 0xcb, 0xc7, 0xee, 0xda, 0x44, 0x2b, 0x56, 0x27, 0x34,
  0xf3, 0x3c, 0x11, 0x51, 0x00, 0x32, 0xc4, 0x10, 0xb3, 0xe5, 0xda, 0xf6,
  0x0c, 0x0b, 0x22, 0x15, 0xfe, 0x01, 0xef, 0x10, 0xf8, 0xfe, 0x04, 0xe6,
  0x0d, 0xd7, 0x18, 0xcc, 0x10, 0xc9, 0x15, 0xd7, 0xca, 0xe9, 0xe0, 0x4a,
  0x31, 0x58, 0x28, 0x36, 0x05, 0x31, 0x0f, 0x4d, 0xfa, 0x31, 0xc9, 0x0b,
  0xb9, 0xec, 0xec, 0x02, 0x1b, 0x08, 0x2a, 0x11, 0x0c, 0x08, 0xf1, 0x08,
  0xf8, 0xfd, 0x01, 0xd6, 0x12, 0xd3, 0x0d, 0xc1, 0x15, 0xb9, 0x0d, 0xcd,
  0xcf, 0xe3, 0xdb, 0x43, 0x2c, 0x4e, 0x1d, 0x34, 0xf8, 0x29, 0x0e, 0x41,
  0xf9, 0x2b, 0xc2, 0x03, 0xb8, 0xeb, 0xe6, 0xff, 0x21, 0x14, 0x24, 0x0d,
  0x03, 0x08, 0xf9, 0x0f, 0xf4, 0xf1, 0x06, 0xd8, 0x0e, 0xd1, 0x13, 0xc1,
  0x08, 0xba, 0x05, 0xd0, 0xd0, 0xf1, 0xe2, 0x3f, 0x2b, 0x47, 0x1b, 0x33,
  0xf8, 0x25, 0x03, 0x34, 0xf1, 0x25, 0xc6, 0xfb, 0xb7, 0xeb, 0xe5, 0xfc,
  0x24, 0x08, 0x22, 0x14, 0x09, 0x0b, 0xf9, 0x0f, 0xf9, 0xfb, 0xfe, 0xe4,
  0x12, 0xd3, 0x19, 0xbe, 0x15, 0xbe, 0x0d, 0xca, 0xd1, 0xf8, 0xe4, 0x3b,
  0x23, 0x44, 0x13, 0x2f, 0xed, 0x24, 0x06, 0x2d, 0xe7, 0x1f, 0xc7, 0x03,
  0xbd, 0xf2, 0xeb, 0x03, 0x1d, 0x0f, 0x1d, 0x14, 0x07, 0x0f, 0xf8, 0x0a,
  0xf8, 0xfa, 0x05, 0xe8, 0x0d, 0xd2, 0x13, 0xc8, 0x1a, 0xb5, 0xfa, 0xc8,
  0xd3, 0xfc, 0xe1, 0x37, 0x16, 0x3a, 0x13, 0x2f, 0xe5, 0x21, 0xfa, 0x2a,
  0xee, 0x14, 0xbf, 0xfd, 0xc0, 0xf7, 0xf9, 0x0e, 0x27, 0x0d, 0x1d, 0x14,
  0x05, 0x0a, 0xf0, 0x09, 0xf7, 0x06, 0x09, 0xe8, 0x18, 0xdb, 0x1d, 0xd5,
  0x16, 0xc9, 0x05, 0xd1, 0xd6, 0xfb, 0xe3, 0x36, 0x14, 0x33, 0x0b, 0x2a,
  0xee, 0x24, 0x00, 0x29, 0xe5, 0x10, 0xb6, 0xff, 0xcb, 0x01, 0xff, 0x18,
  0x26, 0x1b, 0x23, 0x15, 0x0e, 0x10, 0xf7, 0x07, 0xfe, 0x04, 0x0b, 0xe5,
  0x1d, 0xd7, 0x18, 0xd3, 0x17, 0xcb, 0x08, 0xcb, 0xcb, 0xf2, 0xd9, 0x2a,
  0x07, 0x23, 0x03, 0x20, 0xe7, 0x16, 0xf9, 0x20, 0xd6, 0x0a, 0xbc, 0xfb,
  0xc7, 0xf0, 0x00, 0x13, 0x22, 0x13, 0x1b, 0x10, 0x0c, 0x12, 0xf5, 0x03,
  0xf6, 0xfe, 0x10, 0xf6, 0x1d, 0xe2, 0x1a, 0xd7, 0x19, 0xdc, 0x1a, 0xe0,
  0xca, 0xed, 0xd2, 0x1c, 0xfc, 0x13, 0xed, 0x15, 0xd5, 0x0d, 0xe8, 0x11,
  0xca, 0xff, 0xb6, 0xf3, 0xc1, 0xf4, 0xf9, 0x0f, 0x29, 0x0b, 0x19, 0x0f,
  0x01, 0x0d, 0xf4, 0x03, 0xf2, 0x00, 0x0e, 0xf5, 0x1d, 0xe3, 0x17, 0xe0,
  0x20, 0xe2, 0x11, 0xe8, 0xc6, 0xea, 0xc6, 0x0c, 0xe6, 0x07, 0xdc, 0x06,
  0xcc, 0x0b, 0xdb, 0x02, 0xc0, 0xfa, 0xaa, 0xe9, 0xba, 0xfa, 0xff, 0x0c,
  0x1e, 0x10, 0x16, 0x08, 0x01, 0x04, 0xf1, 0x00, 0xfb, 0x01, 0x09, 0xf7,
  0x2b, 0xfa, 0x29, 0xec, 0x2a, 0xe9, 0x21, 0xee, 0x7a, 0xff, 0xff, 0xff,
  0x04, 0x00, 0x00, 0x00, 0x10, 0x00, 0x00, 0x00, 0x06, 0x00, 0x00, 0x00,
  0x1b, 0x00, 0x00, 0x00, 0xd9, 0xff, 0xff, 0xff, 0x06, 0x00, 0x00, 0x00,
  0x54, 0xff, 0xff, 0xff, 0x0f, 0x00, 0x00, 0x00, 0x54, 0x4f, 0x43, 0x4f,
  0x20, 0x43, 0x6f, 0x6e, 0x76, 0x65, 0x72, 0x74, 0x65, 0x64, 0x2e, 0x00,
  0x01, 0x00, 0x00, 0x00, 0x04, 0x00, 0x00, 0x00, 0xf8, 0xfd, 0xff, 0xff,
  0xb8, 0x00, 0x00, 0x00, 0xac, 0x00, 0x00, 0x00, 0xa0, 0x00, 0x00, 0x00,
  0x04, 0x00, 0x00, 0x00, 0x02, 0x00, 0x00, 0x00, 0x60, 0x00, 0x00, 0x00,
  0x14, 0x00, 0x00, 0x00, 0x00, 0x00, 0x0e, 0x00, 0x1a, 0x00, 0x08, 0x00,
  0x0c, 0x00, 0x10, 0x00, 0x07, 0x00, 0x14, 0x00, 0x0e, 0x00, 0x00, 0x00,
  0x00, 0x00, 0x00, 0x09, 0x01, 0x00, 0x00, 0x00, 0x24, 0x00, 0x00, 0x00,
  0x18, 0x00, 0x00, 0x00, 0x0c, 0x00, 0x00, 0x00, 0x00, 0x00, 0x06, 0x00,
  0x08, 0x00, 0x04, 0x00, 0x06, 0x00, 0x00, 0x00, 0x00, 0x00, 0x80, 0x3f,
  0x01, 0x00, 0x00, 0x00, 0x03, 0x00, 0x00, 0x00, 0x01, 0x00, 0x00, 0x00,
  0x02, 0x00, 0x00, 0x00, 0x00, 0x00, 0x0e, 0x00, 0x14, 0x00, 0x00, 0x00,
  0x08, 0x00, 0x0c, 0x00, 0x07, 0x00, 0x10, 0x00, 0x0e, 0x00, 0x00, 0x00,
  0x00, 0x00, 0x00, 0x08, 0x1c, 0x00, 0x00, 0x00, 0x10, 0x00, 0x00, 0x00,
  0x08, 0x00, 0x00, 0x00, 0x04, 0x00, 0x04, 0x00, 0x04, 0x00, 0x00, 0x00,
  0x01, 0x00, 0x00, 0x00, 0x02, 0x00, 0x00, 0x00, 0x03, 0x00, 0x00, 0x00,
  0x01, 0x00, 0x00, 0x00, 0x04, 0x00, 0x00, 0x00, 0x00, 0x00, 0x00, 0x00,
  0x01, 0x00, 0x00, 0x00, 0x03, 0x00, 0x00, 0x00, 0x01, 0x00, 0x00, 0x00,
  0x01, 0x00, 0x00, 0x00, 0x05, 0x00, 0x00, 0x00, 0xb8, 0x01, 0x00, 0x00,
  0x2c, 0x01, 0x00, 0x00, 0xc4, 0x00, 0x00, 0x00, 0x68, 0x00, 0x00, 0x00,
  0x04, 0x00, 0x00, 0x00, 0x6a, 0xfe, 0xff, 0xff, 0x00, 0x00, 0x00, 0x09,
  0x4c, 0x00, 0x00, 0x00, 0x02, 0x00, 0x00, 0x00, 0x28, 0x00, 0x00, 0x00,
  0x04, 0x00, 0x00, 0x00, 0x5c, 0xfe, 0xff, 0xff, 0x14, 0x00, 0x00, 0x00,
  0x04, 0x00, 0x00, 0x00, 0x01, 0x00, 0x00, 0x00, 0x00, 0x00, 0x00, 0x00,
  0x00, 0x00, 0x00, 0x00, 0x01, 0x00, 0x00, 0x00, 0x12, 0x1f, 0x79, 0x3a,
  0x16, 0x00, 0x00, 0x00, 0x77, 0x65, 0x69, 0x67, 0x68, 0x74, 0x73, 0x2f,
  0x72, 0x65, 0x61, 0x64, 0x2f, 0x74, 0x72, 0x61, 0x6e, 0x73, 0x70, 0x6f,
  0x73, 0x65, 0x00, 0x00, 0x02, 0x00, 0x00, 0x00, 0x04, 0x00, 0x00, 0x00,
  0xa8, 0x07, 0x00, 0x00, 0xca, 0xfe, 0xff, 0xff, 0x00, 0x00, 0x00, 0x09,
  0x44, 0x00, 0x00, 0x00, 0x04, 0x00, 0x00, 0x00, 0x28, 0x00, 0x00, 0x00,
  0x04, 0x00, 0x00, 0x00, 0xbc, 0xfe, 0xff, 0xff, 0x14, 0x00, 0x00, 0x00,
  0x04, 0x00, 0x00, 0x00, 0x01, 0x00, 0x00, 0x00, 0x80, 0xff, 0xff, 0xff,
  0xff, 0xff, 0xff, 0xff, 0x01, 0x00, 0x00, 0x00, 0x00, 0x00, 0x80, 0x3b,
  0x0e, 0x00, 0x00, 0x00, 0x6c, 0x61, 0x62, 0x65, 0x6c, 0x73, 0x5f, 0x73,
  0x6f, 0x66, 0x74, 0x6d, 0x61, 0x78, 0x00, 0x00, 0x02, 0x00, 0x00, 0x00,
  0x01, 0x00, 0x00, 0x00, 0x04, 0x00, 0x00, 0x00, 0x22, 0xff, 0xff, 0xff,
  0x00, 0x00, 0x00, 0x09, 0x50, 0x00, 0x00, 0x00, 0x03, 0x00, 0x00, 0x00,
  0x40, 0x00, 0x00, 0x00, 0x04, 0x00, 0x00, 0x00, 0x9c, 0xff, 0xff, 0xff,
  0x2c, 0x00, 0x00, 0x00, 0x20, 0x00, 0x00, 0x00, 0x14, 0x00, 0x00, 0x00,
  0x04, 0x00, 0x00, 0x00, 0x01, 0x00, 0x00, 0x00, 0xe6, 0xff, 0xff, 0xff,
  0xff, 0xff, 0xff, 0xff, 0x01, 0x00, 0x00, 0x00, 0xeb, 0xc4, 0x0e, 0x3f,
  0x01, 0x00, 0x00, 0x00, 0x4f, 0xd6, 0xaa, 0x42, 0x01, 0x00, 0x00, 0x00,
  0xfa, 0x2b, 0x63, 0xc2, 0x03, 0x00, 0x00, 0x00, 0x61, 0x64, 0x64, 0x00,
  0x02, 0x00, 0x00, 0x00, 0x01, 0x00, 0x00, 0x00, 0x04, 0x00, 0x00, 0x00,
  0x86, 0xff, 0xff, 0xff, 0x00, 0x00, 0x00, 0x09, 0x64, 0x00, 0x00, 0x00,
  0x05, 0x00, 0x00, 0x00, 0x4c, 0x00, 0x00, 0x00, 0x10, 0x00, 0x00, 0x00,
  0x0c, 0x00, 0x14, 0x00, 0x04, 0x00, 0x08, 0x00, 0x0c, 0x00, 0x10, 0x00,
  0x0c, 0x00, 0x00, 0x00, 0x2c, 0x00, 0x00, 0x00, 0x20, 0x00, 0x00, 0x00,
  0x14, 0x00, 0x00, 0x00, 0x04, 0x00, 0x00, 0x00, 0x01, 0x00, 0x00, 0x00,
  0x80, 0xff, 0xff, 0xff, 0xff, 0xff, 0xff, 0xff, 0x01, 0x00, 0x00, 0x00,
  0x50, 0x50, 0xd0, 0x3d, 0x01, 0x00, 0x00, 0x00, 0x00, 0x80, 0xcf, 0x41,
  0x01, 0x00, 0x00, 0x00, 0x00, 0x00, 0x00, 0x00, 0x09, 0x00, 0x00, 0x00,
  0x52, 0x65, 0x73, 0x68, 0x61, 0x70, 0x65, 0x5f, 0x31, 0x00, 0x00, 0x00,
  0x02, 0x00, 0x00, 0x00, 0x01, 0x00, 0x00, 0x00, 0xa8, 0x07, 0x00, 0x00,
  0x00, 0x00, 0x0e, 0x00, 0x18, 0x00, 0x08, 0x00, 0x07, 0x00, 0x0c, 0x00,
  0x10, 0x00, 0x14, 0x00, 0x0e, 0x00, 0x00, 0x00, 0x00, 0x00, 0x00, 0x02,
  0x50, 0x00, 0x00, 0x00, 0x01, 0x00, 0x00, 0x00, 0x38, 0x00, 0x00, 0x00,
  0x10, 0x00, 0x00, 0x00, 0x0c, 0x00, 0x0c, 0x00, 0x00, 0x00, 0x00, 0x00,
  0x04, 0x00, 0x08, 0x00, 0x0c, 0x00, 0x00, 0x00, 0x18, 0x00, 0x00, 0x00,
  0x04, 0x00, 0x00, 0x00, 0x01, 0x00, 0x00, 0x00, 0x00, 0x00, 0x00, 0x00,
  0x00, 0x00, 0x00, 0x00, 0x00, 0x00, 0x00, 0x00, 0x01, 0x00, 0x00, 0x00,
  0x66, 0xb7, 0xca, 0x38, 0x0b, 0x00, 0x00, 0x00, 0x4d, 0x61, 0x74, 0x4d,
  0x75, 0x6c, 0x5f, 0x62, 0x69, 0x61, 0x73, 0x00, 0x01, 0x00, 0x00, 0x00,
  0x04, 0x00, 0x00, 0x00, 0x02, 0x00, 0x00, 0x00, 0x2c, 0x00, 0x00, 0x00,
  0x10, 0x00, 0x00, 0x00, 0x00, 0x00, 0x0a, 0x00, 0x0e, 0x00, 0x07, 0x00,
  0x00, 0x00, 0x08, 0x00, 0x0a, 0x00, 0x00, 0x00, 0x00, 0x00, 0x00, 0x19,
  0x02, 0x00, 0x00, 0x00, 0x00, 0x00, 0x0a, 0x00, 0x0c, 0x00, 0x07, 0x00,
  0x00, 0x00, 0x08, 0x00, 0x0a, 0x00, 0x00, 0x00, 0x00, 0x00, 0x00, 0x09,
  0x04, 0x00, 0x00, 0x00
};
unsigned int g_model_len = 8872;
